{
  "version": "1.0",
  "truncation": {
    "direction": "Right",
    "max_length": 128,
    "strategy": "LongestFirst",
    "stride": 0
  },
  "padding": {
    "strategy": {
      "Fixed": 128
    },
    "direction": "Right",
    "pad_to_multiple_of": null,
    "pad_id": 0,
    "pad_type_id": 0,
    "pad_token": "[PAD]"
  },
  "added_tokens": [
    {
      "id": 0,
      "content": "[PAD]",
      "single_word": false,
      "lstrip": false,
      "rstrip": false,
      "normalized": false,
      "special": true
    },
    {
      "id": 101,
      "content": "[UNK]",
      "single_word": false,
      "lstrip": false,
      "rstrip": false,
      "normalized": false,
      "special": true
    },
    {
      "id": 102,
      "content": "[CLS]",
      "single_word": false,
      "lstrip": false,
      "rstrip": false,
      "normalized": false,
      "special": true
    },
    {
      "id": 103,
      "content": "[SEP]",
      "single_word": false,
      "lstrip": false,
      "rstrip": false,
      "normalized": false,
      "special": true
    },
    {
      "id": 104,
      "content": "[MASK]",
      "single_word": false,
      "lstrip": false,
      "rstrip": false,
      "normalized": false,
      "special": true
    }
  ],
  "normalizer": {
    "type": "BertNormalizer",
    "clean_text": true,
    "handle_chinese_chars": true,
    "strip_accents": null,
    "lowercase": true
  },
  "pre_tokenizer": {
    "type": "BertPreTokenizer"
  },
  "post_processor": {
    "type": "TemplateProcessing",
    "single": [
      {
        "SpecialToken": {
          "id": "[CLS]",
          "type_id": 0
        }
      },
      {
        "Sequence": {
          "id": "A",
          "type_id": 0
        }
      },
      {
        "SpecialToken": {
          "id": "[SEP]",
          "type_id": 0
        }
      }
    ],
    "pair": [
      {
        "SpecialToken": {
          "id": "[CLS]",
          "type_id": 0
        }
      },
      {
        "Sequence": {
          "id": "A",
          "type_id": 0
        }
      },
      {
        "SpecialToken": {
          "id": "[SEP]",
          "type_id": 0
        }
      },
      {
        "Sequence": {
          "id": "B",
          "type_id": 1
        }
      },
      {
        "SpecialToken": {
          "id": "[SEP]",
          "type_id": 1
        }
      }
    ],
    "special_tokens": {
      "[CLS]": {
        "id": "[CLS]",
        "ids": [
          102
        ],
        "tokens": [
          "[CLS]"
        ]
      },
      "[SEP]": {
        "id": "[SEP]",
        "ids": [
          103
        ],
        "tokens": [
          "[SEP]"
        ]
      }
    }
  },
  "decoder": {
    "type": "WordPiece",
    "prefix": "##",
    "cleanup": true
  },
  "model": {
    "type": "WordPiece",
    "unk_token": "[UNK]",
    "continuing_subword_prefix": "##",
    "max_input_chars_per_word": 100,
    "vocab": {
      "[PAD]": 0,
      "[unused0]": 1,
      "[unused1]": 2,
      "[unused2]": 3,
      "[unused3]": 4,
      "[unused4]": 5,
      "[unused5]": 6,
      "[unused6]": 7,
      "[unused7]": 8,
      "[unused8]": 9,
      "[unused9]": 10,
      "[unused10]": 11,
      "[unused11]": 12,
      "[unused12]": 13,
      "[unused13]": 14,
      "[unused14]": 15,
      "[unused15]": 16,
      "[unused16]": 17,
      "[unused17]": 18,
      "[unused18]": 19,
      "[unused19]": 20,
      "[unused20]": 21,
      "[unused21]": 22,
      "[unused22]": 23,
      "[unused23]": 24,
      "[unused24]": 25,
      "[unused25]": 26,
      "[unused26]": 27,
      "[unused27]": 28,
      "[unused28]": 29,
      "[unused29]": 30,
      "[unused30]": 31,
      "[unused31]": 32,
      "[unused32]": 33,
      "[unused33]": 34,
      "[unused34]": 35,
      "[unused35]": 36,
      "[unused36]": 37,
      "[unused37]": 38,
      "[unused38]": 39,
      "[unused39]": 40,
      "[unused40]": 41,
      "[unused41]": 42,
      "[unused42]": 43,
      "[unused43]": 44,
      "[unused44]": 45,
      "[unused45]": 46,
      "[unused46]": 47,
      "[unused47]": 48,
      "[unused48]": 49,
      "[unused49]": 50,
      "[unused50]": 51,
      "[unused51]": 52,
      "[unused52]": 53,
      "[unused53]": 54,
      "[unused54]": 55,
      "[unused55]": 56,
      "[unused56]": 57,
      "[unused57]": 58,
      "[unused58]": 59,
      "[unused59]": 60,
      "[unused60]": 61,
      "[unused61]": 62,
      "[unused62]": 63,
      "[unused63]": 64,
      "[unused64]": 65,
      "[unused65]": 66,
      "[unused66]": 67,
      "[unused67]": 68,
      "[unused68]": 69,
      "[unused69]": 70,
      "[unused70]": 71,
      "[unused71]": 72,
      "[unused72]": 73,
      "[unused73]": 74,
      "[unused74]": 75,
      "[unused75]": 76,
      "[unused76]": 77,
      "[unused77]": 78,
      "[unused78]": 79,
      "[unused79]": 80,
      "[unused80]": 81,
      "[unused81]": 82,
      "[unused82]": 83,
      "[unused83]": 84,
      "[unused84]": 85,
      "[unused85]": 86,
      "[unused86]": 87,
      "[unused87]": 88,
      "[unused88]": 89,
      "[unused89]": 90,
      "[unused90]": 91,
      "[unused91]": 92,
      "[unused92]": 93,
      "[unused93]": 94,
      "[unused94]": 95,
      "[unused95]": 96,
      "[unused96]": 97,
      "[unused97]": 98,
      "[unused98]": 99,
      "[unused99]": 100,
      "[UNK]": 101,
      "[CLS]": 102,
      "[SEP]": 103,
      "[MASK]": 104,
      "!": 105,
      "\"": 106,
      "#": 107,
      "$": 108,
      "%": 109,
      "&": 110,
      "'": 111,
      "(": 112,
      ")": 113,
      "*": 114,
      "+": 115,
      ",": 116,
      "-": 117,
      ".": 118,
      "/": 119,
      "0": 120,
      "1": 121,
      "2": 122,
      "3": 123,
      "4": 124,
      "5": 125,
      "6": 126,
      "7": 127,
      "8": 128,
      "9": 129,
      ":": 130,
      ";": 131,
      "<": 132,
      "=": 133,
      ">": 134,
      "?": 135,
      "@": 136,
      "[": 137,
      "\\": 138,
      "]": 139,
      "^": 140,
      "_": 141,
      "`": 142,
      "a": 143,
      "b": 144,
      "c": 145,
      "d": 146,
      "e": 147,
      "f": 148,
      "g": 149,
      "h": 150,
      "i": 151,
      "j": 152,
      "k": 153,
      "l": 154,
      "m": 155,
      "n": 156,
      "o": 157,
      "p": 158,
      "q": 159,
      "r": 160,
      "s": 161,
      "t": 162,
      "u": 163,
      "v": 164,
      "w": 165,
      "x": 166,
      "y": 167,
      "z": 168,
      "{": 169,
      "|": 170,
      "}": 171,
      "~": 172,
      "¡": 173,
      "¢": 174,
      "£": 175,
      "¤": 176,
      "¥": 177,
      "¦": 178,
      "§": 179,
      "¨": 180,
      "©": 181,
      "ª": 182,
      "«": 183,
      "¬": 184,
      "®": 185,
      "¯": 186,
      "°": 187,
      "±": 188,
      "²": 189,
      "³": 190,
      "´": 191,
      "µ": 192,
      "¶": 193,
      "·": 194,
      "¸": 195,
      "¹": 196,
      "º": 197,
      "»": 198,
      "¼": 199,
      "½": 200,
      "¾": 201,
      "¿": 202,
      "×": 203,
      "ß": 204,
      "æ": 205,
      "ð": 206,
      "÷": 207,
      "ø": 208,
      "þ": 209,
      "đ": 210,
      "ı": 211,
      "ĸ": 212,
      "ł": 213,
      "œ": 214,
      "ŧ": 215,
      "ƒ": 216,
      "ǀ": 217,
      "ǂ": 218,
      "ɑ": 219,
      "ɨ": 220,
      "ɷ": 221,
      "ʻ": 222,
      "ʼ": 223,
      "˂": 224,
      "ˆ": 225,
      "ˈ": 226,
      "ˉ": 227,
      "˙": 228,
      "˚": 229,
      "˜": 230,
      "ˡ": 231,
      "ˮ": 232,
      "΄": 233,
      "α": 234,
      "β": 235,
      "γ": 236,
      "δ": 237,
      "ε": 238,
      "ζ": 239,
      "η": 240,
      "ι": 241,
      "κ": 242,
      "λ": 243,
      "μ": 244,
      "ο": 245,
      "π": 246,
      "σ": 247,
      "υ": 248,
      "φ": 249,
      "χ": 250,
      "ω": 251,
      "ϒ": 252,
      "ϖ": 253,
      "а": 254,
      "б": 255,
      "в": 256,
      "д": 257,
      "з": 258,
      "и": 259,
      "к": 260,
      "м": 261,
      "н": 262,
      "о": 263,
      "п": 264,
      "р": 265,
      "с": 266,
      "т": 267,
      "у": 268,
      "ф": 269,
      "ц": 270,
      "ь": 271,
      "я": 272,
      "є": 273,
      "ѕ": 274,
      "і": 275,
      "ј": 276,
      "љ": 277,
      "ҫ": 278,
      "ا": 279,
      "ح": 280,
      "ـ": 281,
      "ل": 282,
      "ە": 283,
      "۷": 284,
      "฿": 285,
      "໿": 286,
      "ཉ": 287,
      "ཫ": 288,
      "ྊ": 289,
      "࿠": 290,
      "࿸": 291,
      "ᵃ": 292,
      "ᵞ": 293,
      "‖": 294,
      "‘": 295,
      "’": 296,
      "‚": 297,
      "‛": 298,
      "“": 299,
      "”": 300,
      "„": 301,
      "‟": 302,
      "†": 303,
      "‡": 304,
      "•": 305,
      "…": 306,
      "‧": 307,
      "‰": 308,
      "′": 309,
      "″": 310,
      "‹": 311,
      "›": 312,
      "⁄": 313,
      "⁰": 314,
      "⁴": 315,
      "⁵": 316,
      "⁶": 317,
      "⁷": 318,
      "⁹": 319,
      "⁺": 320,
      "⁻": 321,
      "⁽": 322,
      "⁾": 323,
      "₁": 324,
      "₂": 325,
      "₋": 326,
      "₤": 327,
      "₨": 328,
      "₩": 329,
      "€": 330,
      "₱": 331,
      "℃": 332,
      "℅": 333,
      "℉": 334,
      "№": 335,
      "℠": 336,
      "™": 337,
      "⅓": 338,
      "⅔": 339,
      "⅛": 340,
      "⅜": 341,
      "⅝": 342,
      "⅞": 343,
      "ⅰ": 344,
      "ⅱ": 345,
      "ⅲ": 346,
      "ⅳ": 347,
      "↑": 348,
      "→": 349,
      "↓": 350,
      "⇒": 351,
      "∆": 352,
      "∊": 353,
      "∎": 354,
      "∑": 355,
      "−": 356,
      "∕": 357,
      "∗": 358,
      "∙": 359,
      "√": 360,
      "∞": 361,
      "∠": 362,
      "∼": 363,
      "≈": 364,
      "≤": 365,
      "≥": 366,
      "⋅": 367,
      "⎼": 368,
      "①": 369,
      "②": 370,
      "③": 371,
      "④": 372,
      "⑤": 373,
      "⑥": 374,
      "─": 375,
      "│": 376,
      "┼": 377,
      "╱": 378,
      "■": 379,
      "□": 380,
      "▪": 381,
      "▫": 382,
      "▲": 383,
      "►": 384,
      "▼": 385,
      "◆": 386,
      "◊": 387,
      "○": 388,
      "●": 389,
      "◦": 390,
      "◾": 391,
      "★": 392,
      "☐": 393,
      "☑": 394,
      "☒": 395,
      "☨": 396,
      "☺": 397,
      "♠": 398,
      "♣": 399,
      "♥": 400,
      "♦": 401,
      "✓": 402,
      "✔": 403,
      "✗": 404,
      "✘": 405,
      "❖": 406,
      "❶": 407,
      "❷": 408,
      "❸": 409,
      "❹": 410,
      "❺": 411,
      "➢": 412,
      "➤": 413,
      "ⱡ": 414,
      "⸶": 415,
      "⸸": 416,
      "、": 417,
      "。": 418,
      "《": 419,
      "》": 420,
      "【": 421,
      "】": 422,
      "㎡": 423,
      "ﬀ": 424,
      "ﬁ": 425,
      "ﬂ": 426,
      "ﬃ": 427,
      "﴾": 428,
      "﴿": 429,
      "﷐": 430,
      "＄": 431,
      "％": 432,
      "＆": 433,
      "（": 434,
      "）": 435,
      "，": 436,
      "－": 437,
      "．": 438,
      "：": 439,
      "；": 440,
      "ｇ": 441,
      "ｏ": 442,
      "～": 443,
      "ﾀ": 444,
      "￡": 445,
      "￥": 446,
      "￦": 447,
      "🌑": 448,
      "##i": 449,
      "##l": 450,
      "##e": 451,
      "##y": 452,
      "##f": 453,
      "##c": 454,
      "##h": 455,
      "##o": 456,
      "##u": 457,
      "##n": 458,
      "##t": 459,
      "##g": 460,
      "##m": 461,
      "##a": 462,
      "##r": 463,
      "##k": 464,
      "##5": 465,
      "##2": 466,
      "##0": 467,
      "##p": 468,
      "##s": 469,
      "##x": 470,
      "##d": 471,
      "##8": 472,
      "##3": 473,
      "##±": 474,
      "##6": 475,
      "##1": 476,
      "##7": 477,
      "##b": 478,
      "##w": 479,
      "##q": 480,
      "##v": 481,
      "##4": 482,
      "##9": 483,
      "##z": 484,
      "##j": 485,
      "##×": 486,
      "##³": 487,
      "##¾": 488,
      "##´": 489,
      "##−": 490,
      "##µ": 491,
      "##≥": 492,
      "##€": 493,
      "##œ": 494,
      "##¹": 495,
      "##¤": 496,
      "##ł": 497,
      "##¨": 498,
      "##⁄": 499,
      "##º": 500,
      "##²": 501,
      "##¢": 502,
      "##μ": 503,
      "##¼": 504,
      "##м": 505,
      "##к": 506,
      "##∆": 507,
      "##ﬁ": 508,
      "##¸": 509,
      "##æ": 510,
      "##≤": 511,
      "##˚": 512,
      "##υ": 513,
      "##δ": 514,
      "##ø": 515,
      "##β": 516,
      "##½": 517,
      "##ß": 518,
      "##и": 519,
      "##√": 520,
      "##ʼ": 521,
      "##с": 522,
      "##н": 523,
      "##ε": 524,
      "##⅜": 525,
      "##∑": 526,
      "##⁻": 527,
      "##⁴": 528,
      "##α": 529,
      "##γ": 530,
      "##д": 531,
      "##ц": 532,
      "##ˆ": 533,
      "##ǂ": 534,
      "##ω": 535,
      "##¬": 536,
      "##¯": 537,
      "##¥": 538,
      "##∞": 539,
      "##þ": 540,
      "##£": 541,
      "##ζ": 542,
      "##ο": 543,
      "##љ": 544,
      "##⅝": 545,
      "##у": 546,
      "##ı": 547,
      "##κ": 548,
      "##ـ": 549,
      "##ﬂ": 550,
      "##∙": 551,
      "##⁰": 552,
      "##⁺": 553,
      "##∊": 554,
      "##₂": 555,
      "##΄": 556,
      "##ｇ": 557,
      "##ｏ": 558,
      "##⅓": 559,
      "##⅛": 560,
      "##ɑ": 561,
      "##ð": 562,
      "##～": 563,
      "##т": 564,
      "##ە": 565,
      "##໿": 566,
      "##⁹": 567,
      "##в": 568,
      "##ј": 569,
      "##б": 570,
      "##ﬀ": 571,
      "##і": 572,
      "##⅞": 573,
      "##ª": 574,
      "##ᵞ": 575,
      "##∕": 576,
      "##ҫ": 577,
      "##˂": 578,
      "##⅔": 579,
      "##ŧ": 580,
      "##φ": 581,
      "##а": 582,
      "##ل": 583,
      "##ا": 584,
      "##ˉ": 585,
      "##з": 586,
      "##р": 587,
      "##ʻ": 588,
      "##ѕ": 589,
      "##ф": 590,
      "##ˮ": 591,
      "##①": 592,
      "##π": 593,
      "##χ": 594,
      "##ﬃ": 595,
      "##п": 596,
      "##ι": 597,
      "##σ": 598,
      "##࿸": 599,
      "##đ": 600,
      "##о": 601,
      "##ĸ": 602,
      "##∗": 603,
      "##ˡ": 604,
      "##ⅱ": 605,
      "##η": 606,
      "##er": 607,
      "th": 608,
      "##ti": 609,
      "##on": 610,
      "##es": 611,
      "the": 612,
      "##ed": 613,
      "##en": 614,
      "##an": 615,
      "##in": 616,
      "in": 617,
      "##or": 618,
      "of": 619,
      "an": 620,
      "##al": 621,
      "##at": 622,
      "##ar": 623,
      "and": 624,
      "##tion": 625,
      "##ur": 626,
      "##ent": 627,
      "##om": 628,
      "##ec": 629,
      "##it": 630,
      "to": 631,
      "##ing": 632,
      "##ic": 633,
      "##as": 634,
      "re": 635,
      "pr": 636,
      "##is": 637,
      "##em": 638,
      "##il": 639,
      "com": 640,
      "##ts": 641,
      "##re": 642,
      "##ation": 643,
      "as": 644,
      "for": 645,
      "##ve": 646,
      "comp": 647,
      "##ol": 648,
      "##ou": 649,
      "20": 650,
      "con": 651,
      "##ly": 652,
      "st": 653,
      "##et": 654,
      "##anc": 655,
      "pro": 656,
      "##ir": 657,
      "##st": 658,
      "ex": 659,
      "inc": 660,
      "##id": 661,
      "##ement": 662,
      "##ac": 663,
      "our": 664,
      "##tin": 665,
      "on": 666,
      "ac": 667,
      "or": 668,
      "##ers": 669,
      "##le": 670,
      "##ate": 671,
      "##ment": 672,
      "##os": 673,
      "##ated": 674,
      "##li": 675,
      "compan": 676,
      "##ab": 677,
      "no": 678,
      "##uc": 679,
      "##ting": 680,
      "be": 681,
      "##th": 682,
      "company": 683,
      "##ter": 684,
      "##ul": 685,
      "is": 686,
      "##qu": 687,
      "##ial": 688,
      "##ect": 689,
      "res": 690,
      "we": 691,
      "##lo": 692,
      "##ith": 693,
      "200": 694,
      "##tr": 695,
      "##im": 696,
      "##nd": 697,
      "de": 698,
      "##ess": 699,
      "##ity": 700,
      "with": 701,
      "##ay": 702,
      "are": 703,
      "##per": 704,
      "##ain": 705,
      "##ber": 706,
      "by": 707,
      "##oc": 708,
      "not": 709,
      "##se": 710,
      "wh": 711,
      "fin": 712,
      "##ig": 713,
      "su": 714,
      "##ver": 715,
      "that": 716,
      "##tive": 717,
      "##ag": 718,
      "##oun": 719,
      "201": 720,
      "ad": 721,
      "##por": 722,
      "##ties": 723,
      "##est": 724,
      "financ": 725,
      "##ue": 726,
      "##ud": 727,
      "##ations": 728,
      "al": 729,
      "##ition": 730,
      "sh": 731,
      "##able": 732,
      "dec": 733,
      "##pr": 734,
      "acc": 735,
      "fr": 736,
      "##ance": 737,
      "per": 738,
      "##ch": 739,
      "##ff": 740,
      "financial": 741,
      "##illi": 742,
      "##ember": 743,
      "##illion": 744,
      "##ip": 745,
      "at": 746,
      "##ear": 747,
      "##ements": 748,
      "million": 749,
      "##us": 750,
      "##od": 751,
      "##ant": 752,
      "rec": 753,
      "exp": 754,
      "from": 755,
      "19": 756,
      "##ut": 757,
      "comm": 758,
      "inter": 759,
      "##ther": 760,
      "oper": 761,
      "stat": 762,
      "##el": 763,
      "##fic": 764,
      "am": 765,
      "##iv": 766,
      "##ust": 767,
      "##end": 768,
      "mar": 769,
      "cons": 770,
      "##mp": 771,
      "tr": 772,
      "ap": 773,
      "ch": 774,
      "##ock": 775,
      "un": 776,
      "##ities": 777,
      "ha": 778,
      "par": 779,
      "##ase": 780,
      "##ib": 781,
      "##ere": 782,
      "##ce": 783,
      "year": 784,
      "##ies": 785,
      "stock": 786,
      "ag": 787,
      "##ion": 788,
      "dis": 789,
      "31": 790,
      "##ich": 791,
      "##and": 792,
      "##lud": 793,
      "##tain": 794,
      "en": 795,
      "december": 796,
      "##ang": 797,
      "other": 798,
      "##duc": 799,
      "which": 800,
      "sub": 801,
      "##for": 802,
      "##ure": 803,
      "##low": 804,
      "##ans": 805,
      "199": 806,
      "man": 807,
      "##ow": 808,
      "##tions": 809,
      "##ted": 810,
      "includ": 811,
      "##ens": 812,
      "ser": 813,
      "##ary": 814,
      "shar": 815,
      "##um": 816,
      "##red": 817,
      "##ard": 818,
      "##ased": 819,
      "##ill": 820,
      "may": 821,
      "##00": 822,
      "##ap": 823,
      "##ad": 824,
      "##erm": 825,
      "ass": 826,
      "sec": 827,
      "produc": 828,
      "##iz": 829,
      "pl": 830,
      "have": 831,
      "##ome": 832,
      "val": 833,
      "und": 834,
      "its": 835,
      "##dition": 836,
      "##ual": 837,
      "contr": 838,
      "reg": 839,
      "ta": 840,
      "se": 841,
      "##fer": 842,
      "mark": 843,
      "inv": 844,
      "li": 845,
      "under": 846,
      "serv": 847,
      "le": 848,
      "##ments": 849,
      "##am": 850,
      "resul": 851,
      "was": 852,
      "##act": 853,
      "##pro": 854,
      "##ility": 855,
      "##ign": 856,
      "##ors": 857,
      "##ld": 858,
      "co": 859,
      "rel": 860,
      "##old": 861,
      "us": 862,
      "ind": 863,
      "##ese": 864,
      "##form": 865,
      "##ating": 866,
      "requ": 867,
      "rev": 868,
      "tax": 869,
      "suc": 870,
      "accoun": 871,
      "prov": 872,
      "servic": 873,
      "##eral": 874,
      "repor": 875,
      "##ould": 876,
      "##age": 877,
      "pur": 878,
      "##air": 879,
      "these": 880,
      "ne": 881,
      "agre": 882,
      "part": 883,
      "statements": 884,
      "##oss": 885,
      "gr": 886,
      "cas": 887,
      "sal": 888,
      "##ates": 889,
      "this": 890,
      "##igh": 891,
      "appro": 892,
      "##og": 893,
      "it": 894,
      "any": 895,
      "##iness": 896,
      "will": 897,
      "bus": 898,
      "business": 899,
      "end": 900,
      "000": 901,
      "##tic": 902,
      "net": 903,
      "value": 904,
      "incre": 905,
      "##su": 906,
      "manag": 907,
      "mat": 908,
      "income": 909,
      "interest": 910,
      "int": 911,
      "eff": 912,
      "##ective": 913,
      "cash": 914,
      "op": 915,
      "such": 916,
      "term": 917,
      "lo": 918,
      "##uring": 919,
      "##sets": 920,
      "assets": 921,
      "gen": 922,
      "equ": 923,
      "cap": 924,
      "cl": 925,
      "operations": 926,
      "cer": 927,
      "##olid": 928,
      "has": 929,
      "##un": 930,
      "10": 931,
      "##ord": 932,
      "requir": 933,
      "amoun": 934,
      "secur": 935,
      "pay": 936,
      "##irect": 937,
      "consolid": 938,
      "addition": 939,
      "invest": 940,
      "##urr": 941,
      "##ific": 942,
      "resp": 943,
      "imp": 944,
      "##orpor": 945,
      "all": 946,
      "market": 947,
      "ab": 948,
      "direct": 949,
      "provid": 950,
      "were": 951,
      "common": 952,
      "based": 953,
      "##its": 954,
      "pric": 955,
      "##ru": 956,
      "##ail": 957,
      "##iod": 958,
      "consolidated": 959,
      "##ings": 960,
      "period": 961,
      "##ital": 962,
      "##ee": 963,
      "##sti": 964,
      "related": 965,
      "management": 966,
      "disc": 967,
      "ended": 968,
      "reven": 969,
      "trans": 970,
      "loss": 971,
      "##tial": 972,
      "certain": 973,
      "shares": 974,
      "##ized": 975,
      "acqu": 976,
      "##ty": 977,
      "agreement": 978,
      "curr": 979,
      "##gh": 980,
      "pre": 981,
      "cos": 982,
      "##ach": 983,
      "##ous": 984,
      "##lic": 985,
      "over": 986,
      "##ately": 987,
      "chang": 988,
      "costs": 989,
      "share": 990,
      "##ence": 991,
      "##ative": 992,
      "capital": 993,
      "sp": 994,
      "##ited": 995,
      "##xim": 996,
      "products": 997,
      "cust": 998,
      "##ners": 999,
      "##ef": 1000,
      "##ical": 1001,
      "##tiv": 1002,
      "if": 1003,
      "##enc": 1004,
      "during": 1005,
      "##ough": 1006,
      "cred": 1007,
      "years": 1008,
      "##ents": 1009,
      "custom": 1010,
      "##ures": 1011,
      "##ank": 1012,
      "bo": 1013,
      "##hip": 1014,
      "general": 1015,
      "services": 1016,
      "fair": 1017,
      "offic": 1018,
      "ob": 1019,
      "##velo": 1020,
      "plan": 1021,
      "##so": 1022,
      "up": 1023,
      "##velop": 1024,
      "sales": 1025,
      "##ected": 1026,
      "##ine": 1027,
      "tim": 1028,
      "mor": 1029,
      "issu": 1030,
      "sign": 1031,
      "##loy": 1032,
      "could": 1033,
      "accounting": 1034,
      "including": 1035,
      "form": 1036,
      "develop": 1037,
      "operating": 1038,
      "fol": 1039,
      "##ilities": 1040,
      "follow": 1041,
      "app": 1042,
      "regul": 1043,
      "credit": 1044,
      "new": 1045,
      "##oll": 1046,
      "fut": 1047,
      "ow": 1048,
      "esti": 1049,
      "estim": 1050,
      "emp": 1051,
      "purch": 1052,
      "##arg": 1053,
      "##ory": 1054,
      "ev": 1055,
      "##isc": 1056,
      "approxim": 1057,
      "also": 1058,
      "fac": 1059,
      "##ior": 1060,
      "employ": 1061,
      "securities": 1062,
      "liab": 1063,
      "adv": 1064,
      "##erial": 1065,
      "##ong": 1066,
      "##pos": 1067,
      "fe": 1068,
      "notes": 1069,
      "bank": 1070,
      "##pt": 1071,
      "rate": 1072,
      "future": 1073,
      "pres": 1074,
      "qu": 1075,
      "ris": 1076,
      "current": 1077,
      "##ense": 1078,
      "material": 1079,
      "proper": 1080,
      "results": 1081,
      "contin": 1082,
      "go": 1083,
      "rece": 1084,
      "##cess": 1085,
      "##our": 1086,
      "##und": 1087,
      "approximately": 1088,
      "##ot": 1089,
      "thr": 1090,
      "##arr": 1091,
      "risk": 1092,
      "##gr": 1093,
      "##iscal": 1094,
      "non": 1095,
      "fiscal": 1096,
      "aff": 1097,
      "inform": 1098,
      "been": 1099,
      "##ferred": 1100,
      "information": 1101,
      "ann": 1102,
      "subs": 1103,
      "##ive": 1104,
      "there": 1105,
      "item": 1106,
      "time": 1107,
      "##ificant": 1108,
      "through": 1109,
      "##if": 1110,
      "##are": 1111,
      "##op": 1112,
      "control": 1113,
      "significant": 1114,
      "ma": 1115,
      "fil": 1116,
      "##erc": 1117,
      "intern": 1118,
      "corpor": 1119,
      "det": 1120,
      "ben": 1121,
      "##ject": 1122,
      "##hold": 1123,
      "red": 1124,
      "due": 1125,
      "additional": 1126,
      "##all": 1127,
      "##istr": 1128,
      "##aw": 1129,
      "price": 1130,
      "##ily": 1131,
      "amount": 1132,
      "##tal": 1133,
      "##ke": 1134,
      "prim": 1135,
      "their": 1136,
      "each": 1137,
      "than": 1138,
      "##ied": 1139,
      "##ose": 1140,
      "##nership": 1141,
      "##trib": 1142,
      "me": 1143,
      "##inc": 1144,
      "fund": 1145,
      "##ues": 1146,
      "##idi": 1147,
      "##ision": 1148,
      "##uts": 1149,
      "total": 1150,
      "lim": 1151,
      "##enses": 1152,
      "sup": 1153,
      "subsidi": 1154,
      "result": 1155,
      "cost": 1156,
      "30": 1157,
      "##ll": 1158,
      "act": 1159,
      "deb": 1160,
      "##ech": 1161,
      "bas": 1162,
      "date": 1163,
      "increase": 1164,
      "##ogn": 1165,
      "##urance": 1166,
      "compens": 1167,
      "exec": 1168,
      "15": 1169,
      "can": 1170,
      "##ell": 1171,
      "##ectively": 1172,
      "report": 1173,
      "princ": 1174,
      "princip": 1175,
      "##ork": 1176,
      "##ass": 1177,
      "sy": 1178,
      "mon": 1179,
      "##ined": 1180,
      "condition": 1181,
      "ear": 1182,
      "ar": 1183,
      "##ange": 1184,
      "following": 1185,
      "##ants": 1186,
      "record": 1187,
      "des": 1188,
      "##isition": 1189,
      "compensation": 1190,
      "acquisition": 1191,
      "revenue": 1192,
      "##ia": 1193,
      "br": 1194,
      "into": 1195,
      "perform": 1196,
      "##ist": 1197,
      "##ise": 1198,
      "##sion": 1199,
      "recogn": 1200,
      "##utive": 1201,
      "subject": 1202,
      "##ep": 1203,
      "directors": 1204,
      "##arter": 1205,
      "expenses": 1206,
      "annual": 1207,
      "loan": 1208,
      "##ards": 1209,
      "equity": 1210,
      "##eth": 1211,
      "##lig": 1212,
      "##arily": 1213,
      "str": 1214,
      "hold": 1215,
      "expense": 1216,
      "ins": 1217,
      "changes": 1218,
      "receiv": 1219,
      "transac": 1220,
      "outs": 1221,
      "do": 1222,
      "debt": 1223,
      "##olog": 1224,
      "oc": 1225,
      "loans": 1226,
      "##echn": 1227,
      "##erse": 1228,
      "##ases": 1229,
      "##erg": 1230,
      "note": 1231,
      "marke": 1232,
      "required": 1233,
      "av": 1234,
      "development": 1235,
      "##ire": 1236,
      "##ution": 1237,
      "investment": 1238,
      "determ": 1239,
      "##ivid": 1240,
      "##ari": 1241,
      "techn": 1242,
      "##ection": 1243,
      "12": 1244,
      "##stem": 1245,
      "pa": 1246,
      "own": 1247,
      "benef": 1248,
      "purchase": 1249,
      "au": 1250,
      "##ower": 1251,
      "est": 1252,
      "def": 1253,
      "executive": 1254,
      "customers": 1255,
      "##ade": 1256,
      "##ie": 1257,
      "product": 1258,
      "aud": 1259,
      "system": 1260,
      "reporting": 1261,
      "board": 1262,
      "por": 1263,
      "he": 1264,
      "quarter": 1265,
      "##anding": 1266,
      "distrib": 1267,
      "more": 1268,
      "exch": 1269,
      "##ub": 1270,
      "one": 1271,
      "primarily": 1272,
      "bal": 1273,
      "reduc": 1274,
      "##les": 1275,
      "flow": 1276,
      "basis": 1277,
      "di": 1278,
      "##ons": 1279,
      "upon": 1280,
      "issued": 1281,
      "##ree": 1282,
      "activ": 1283,
      "respectively": 1284,
      "applic": 1285,
      "rem": 1286,
      "high": 1287,
      "statement": 1288,
      "el": 1289,
      "amounts": 1290,
      "compar": 1291,
      "liabilities": 1292,
      "##ish": 1293,
      "vari": 1294,
      "##verage": 1295,
      "##ceed": 1296,
      "fir": 1297,
      "##aries": 1298,
      "##port": 1299,
      "##ying": 1300,
      "rep": 1301,
      "im": 1302,
      "exchange": 1303,
      "##ational": 1304,
      "##ible": 1305,
      "would": 1306,
      "included": 1307,
      "use": 1308,
      "service": 1309,
      "increased": 1310,
      "avail": 1311,
      "real": 1312,
      "spec": 1313,
      "main": 1314,
      "inst": 1315,
      "commit": 1316,
      "rates": 1317,
      "2008": 1318,
      "earn": 1319,
      "##holders": 1320,
      "2009": 1321,
      "bec": 1322,
      "decre": 1323,
      "corporation": 1324,
      "partnership": 1325,
      "adverse": 1326,
      "beli": 1327,
      "##ees": 1328,
      "property": 1329,
      "restr": 1330,
      "revenues": 1331,
      "##ects": 1332,
      "##vel": 1333,
      "law": 1334,
      "##eld": 1335,
      "march": 1336,
      "2007": 1337,
      "oblig": 1338,
      "options": 1339,
      "long": 1340,
      "2006": 1341,
      "##au": 1342,
      "##hib": 1343,
      "belie": 1344,
      "principal": 1345,
      "##ances": 1346,
      "outst": 1347,
      "outstanding": 1348,
      "13": 1349,
      "##ustr": 1350,
      "##ight": 1351,
      "2010": 1352,
      "well": 1353,
      "see": 1354,
      "num": 1355,
      "##out": 1356,
      "pol": 1357,
      "progr": 1358,
      "filed": 1359,
      "##ential": 1360,
      "enter": 1361,
      "##ast": 1362,
      "losses": 1363,
      "##cr": 1364,
      "effective": 1365,
      "##oci": 1366,
      "##orr": 1367,
      "14": 1368,
      "##eti": 1369,
      "continu": 1370,
      "incorpor": 1371,
      "amend": 1372,
      "ref": 1373,
      "prior": 1374,
      "##anu": 1375,
      "coll": 1376,
      "technolog": 1377,
      "##ticip": 1378,
      "enti": 1379,
      "jun": 1380,
      "sale": 1381,
      "loc": 1382,
      "subsidiaries": 1383,
      "used": 1384,
      "2011": 1385,
      "stand": 1386,
      "carr": 1387,
      "##ified": 1388,
      "2005": 1389,
      "ret": 1390,
      "##ond": 1391,
      "recorded": 1392,
      "diff": 1393,
      "pub": 1394,
      "generally": 1395,
      "associ": 1396,
      "accord": 1397,
      "refer": 1398,
      "provide": 1399,
      "janu": 1400,
      "january": 1401,
      "internal": 1402,
      "11": 1403,
      "fed": 1404,
      "2002": 1405,
      "##fact": 1406,
      "##ission": 1407,
      "2004": 1408,
      "those": 1409,
      "include": 1410,
      "##par": 1411,
      "impair": 1412,
      "mr": 1413,
      "facility": 1414,
      "off": 1415,
      "##los": 1416,
      "officer": 1417,
      "##cent": 1418,
      "allow": 1419,
      "federal": 1420,
      "registr": 1421,
      "bet": 1422,
      "had": 1423,
      "2003": 1424,
      "industr": 1425,
      "june": 1426,
      "##ati": 1427,
      "##uct": 1428,
      "##fter": 1429,
      "supp": 1430,
      "##ves": 1431,
      "2013": 1432,
      "2012": 1433,
      "program": 1434,
      "requirements": 1435,
      "##ack": 1436,
      "##utions": 1437,
      "ii": 1438,
      "manu": 1439,
      "competi": 1440,
      "manufact": 1441,
      "2014": 1442,
      "grant": 1443,
      "available": 1444,
      "##we": 1445,
      "2000": 1446,
      "effect": 1447,
      "##ix": 1448,
      "level": 1449,
      "##lement": 1450,
      "##ination": 1451,
      "charg": 1452,
      "##gin": 1453,
      "balance": 1454,
      "pos": 1455,
      "fact": 1456,
      "##tiz": 1457,
      "states": 1458,
      "gu": 1459,
      "month": 1460,
      "class": 1461,
      "##ved": 1462,
      "contract": 1463,
      "2001": 1464,
      "qual": 1465,
      "ability": 1466,
      "tw": 1467,
      "##ata": 1468,
      "when": 1469,
      "consid": 1470,
      "insurance": 1471,
      "##ability": 1472,
      "companies": 1473,
      "activities": 1474,
      "mo": 1475,
      "public": 1476,
      "pers": 1477,
      "number": 1478,
      "set": 1479,
      "##ause": 1480,
      "##ame": 1481,
      "asset": 1482,
      "polic": 1483,
      "##ends": 1484,
      "##atory": 1485,
      "exhib": 1486,
      "##min": 1487,
      "offer": 1488,
      "limited": 1489,
      "2015": 1490,
      "present": 1491,
      "adj": 1492,
      "##ite": 1493,
      "agreements": 1494,
      "gas": 1495,
      "disclos": 1496,
      "deferred": 1497,
      "##urn": 1498,
      "##ween": 1499,
      "between": 1500,
      "investments": 1501,
      "impact": 1502,
      "united": 1503,
      "prof": 1504,
      "2016": 1505,
      "1999": 1506,
      "##av": 1507,
      "seg": 1508,
      "incorporated": 1509,
      "##aim": 1510,
      "estimated": 1511,
      "divid": 1512,
      "compared": 1513,
      "cr": 1514,
      "1998": 1515,
      "process": 1516,
      "data": 1517,
      "min": 1518,
      "after": 1519,
      "employees": 1520,
      "##ipment": 1521,
      "expected": 1522,
      "performance": 1523,
      "terms": 1524,
      "lease": 1525,
      "##oin": 1526,
      "repr": 1527,
      "trad": 1528,
      "sept": 1529,
      "september": 1530,
      "ph": 1531,
      "25": 1532,
      "##ency": 1533,
      "##io": 1534,
      "##ason": 1535,
      "thir": 1536,
      "sell": 1537,
      "reference": 1538,
      "##ide": 1539,
      "##lish": 1540,
      "pursu": 1541,
      "##con": 1542,
      "option": 1543,
      "transactions": 1544,
      "##acts": 1545,
      "1997": 1546,
      "flows": 1547,
      "adjust": 1548,
      "claim": 1549,
      "##ys": 1550,
      "payments": 1551,
      "##vern": 1552,
      "consider": 1553,
      "recognized": 1554,
      "paid": 1555,
      "subst": 1556,
      "position": 1557,
      "govern": 1558,
      "meas": 1559,
      "equipment": 1560,
      "##alu": 1561,
      "repres": 1562,
      "##ace": 1563,
      "lic": 1564,
      "##isting": 1565,
      "state": 1566,
      "third": 1567,
      "proceed": 1568,
      "##ortiz": 1569,
      "sch": 1570,
      "customer": 1571,
      "##own": 1572,
      "percent": 1573,
      "provision": 1574,
      "ord": 1575,
      "made": 1576,
      "##oup": 1577,
      "reser": 1578,
      "first": 1579,
      "average": 1580,
      "ext": 1581,
      "##ters": 1582,
      "##ercial": 1583,
      "restric": 1584,
      "fees": 1585,
      "change": 1586,
      "earnings": 1587,
      "commercial": 1588,
      "accounts": 1589,
      "pursuant": 1590,
      "cal": 1591,
      "fore": 1592,
      "trust": 1593,
      "evalu": 1594,
      "so": 1595,
      "design": 1596,
      "taxes": 1597,
      "##ident": 1598,
      "##to": 1599,
      "borr": 1600,
      "liability": 1601,
      "##thor": 1602,
      "##ateg": 1603,
      "##ok": 1604,
      "good": 1605,
      "acquir": 1606,
      "##ourc": 1607,
      "1996": 1608,
      "contracts": 1609,
      "incur": 1610,
      "less": 1611,
      "estimates": 1612,
      "##endent": 1613,
      "prev": 1614,
      "##tg": 1615,
      "meth": 1616,
      "gener": 1617,
      "factors": 1618,
      "audit": 1619,
      "coun": 1620,
      "amortiz": 1621,
      "differ": 1622,
      "aw": 1623,
      "2017": 1624,
      "three": 1625,
      "method": 1626,
      "der": 1627,
      "instru": 1628,
      "##ights": 1629,
      "exerc": 1630,
      "continued": 1631,
      "impairment": 1632,
      "mortg": 1633,
      "within": 1634,
      "properties": 1635,
      "obligations": 1636,
      "remain": 1637,
      "##over": 1638,
      "substan": 1639,
      "sen": 1640,
      "exper": 1641,
      "conn": 1642,
      "med": 1643,
      "dep": 1644,
      "maintain": 1645,
      "##ft": 1646,
      "##iew": 1647,
      "##ful": 1648,
      "##ex": 1649,
      "foreign": 1650,
      "conditions": 1651,
      "director": 1652,
      "##reat": 1653,
      "##uly": 1654,
      "author": 1655,
      "group": 1656,
      "associated": 1657,
      "two": 1658,
      "##ergy": 1659,
      "substantial": 1660,
      "##ten": 1661,
      "grow": 1662,
      "senior": 1663,
      "16": 1664,
      "rights": 1665,
      "##fe": 1666,
      "affect": 1667,
      "reason": 1668,
      "##gan": 1669,
      "compl": 1670,
      "deriv": 1671,
      "currently": 1672,
      "facilities": 1673,
      "##ablish": 1674,
      "regulatory": 1675,
      "ful": 1676,
      "establish": 1677,
      "##tical": 1678,
      "leg": 1679,
      "pot": 1680,
      "systems": 1681,
      "dr": 1682,
      "##ief": 1683,
      "markets": 1684,
      "##ources": 1685,
      "plans": 1686,
      "mod": 1687,
      "feb": 1688,
      "exhibit": 1689,
      "dated": 1690,
      "payment": 1691,
      "pat": 1692,
      "febru": 1693,
      "february": 1694,
      "##ured": 1695,
      "##reg": 1696,
      "prices": 1697,
      "periods": 1698,
      "vol": 1699,
      "various": 1700,
      "##ner": 1701,
      "occ": 1702,
      "gain": 1703,
      "using": 1704,
      "benefit": 1705,
      "chief": 1706,
      "obtain": 1707,
      "provided": 1708,
      "energy": 1709,
      "table": 1710,
      "##ced": 1711,
      "##edg": 1712,
      "includes": 1713,
      "president": 1714,
      "##ile": 1715,
      "potential": 1716,
      "standards": 1717,
      "nat": 1718,
      "##ice": 1719,
      "admin": 1720,
      "party": 1721,
      "##ands": 1722,
      "valu": 1723,
      "##iation": 1724,
      "owned": 1725,
      "##cer": 1726,
      "##uted": 1727,
      "##ning": 1728,
      "continue": 1729,
      "elect": 1730,
      "warr": 1731,
      "mortgage": 1732,
      "person": 1733,
      "##ving": 1734,
      "acquired": 1735,
      "how": 1736,
      "refl": 1737,
      "officers": 1738,
      "held": 1739,
      "work": 1740,
      "discus": 1741,
      "nor": 1742,
      "##ump": 1743,
      "##ines": 1744,
      "regulations": 1745,
      "##ult": 1746,
      "borrow": 1747,
      "##quid": 1748,
      "econ": 1749,
      "industry": 1750,
      "accordance": 1751,
      "indep": 1752,
      "econom": 1753,
      "believe": 1754,
      "applicable": 1755,
      "below": 1756,
      "##verti": 1757,
      "preferred": 1758,
      "ini": 1759,
      "##ici": 1760,
      "existing": 1761,
      "technology": 1762,
      "but": 1763,
      "instruments": 1764,
      "units": 1765,
      "out": 1766,
      "assess": 1767,
      "claims": 1768,
      "liquid": 1769,
      "make": 1770,
      "adop": 1771,
      "port": 1772,
      "##fore": 1773,
      "##ize": 1774,
      "stockholders": 1775,
      "uti": 1776,
      "committ": 1777,
      "##ound": 1778,
      "decrease": 1779,
      "sum": 1780,
      "experi": 1781,
      "depos": 1782,
      "##tober": 1783,
      "october": 1784,
      "sol": 1785,
      "##liance": 1786,
      "marketing": 1787,
      "connection": 1788,
      "sin": 1789,
      "segment": 1790,
      "administr": 1791,
      "##ey": 1792,
      "anal": 1793,
      "##val": 1794,
      "ll": 1795,
      "received": 1796,
      "purpos": 1797,
      "##tives": 1798,
      "sf": 1799,
      "##alth": 1800,
      "day": 1801,
      "registrant": 1802,
      "nov": 1803,
      "apr": 1804,
      "1995": 1805,
      "##ove": 1806,
      "decl": 1807,
      "18": 1808,
      "financing": 1809,
      "laws": 1810,
      "##omp": 1811,
      "require": 1812,
      "april": 1813,
      "power": 1814,
      "regard": 1815,
      "##ization": 1816,
      "##loc": 1817,
      "##vir": 1818,
      "##tig": 1819,
      "benefits": 1820,
      "id": 1821,
      "since": 1822,
      "##mit": 1823,
      "distribution": 1824,
      "determined": 1825,
      "sim": 1826,
      "july": 1827,
      "##ore": 1828,
      "electr": 1829,
      "sfas": 1830,
      "funds": 1831,
      "##ending": 1832,
      "cour": 1833,
      "##tif": 1834,
      "envir": 1835,
      "##ever": 1836,
      "commission": 1837,
      "environ": 1838,
      "##greg": 1839,
      "arr": 1840,
      "##fol": 1841,
      "because": 1842,
      "committee": 1843,
      "comb": 1844,
      "##mental": 1845,
      "independent": 1846,
      "##work": 1847,
      "dem": 1848,
      "eng": 1849,
      "##yp": 1850,
      "portfol": 1851,
      "strateg": 1852,
      "fur": 1853,
      "aggreg": 1854,
      "production": 1855,
      "offs": 1856,
      "particip": 1857,
      "##oint": 1858,
      "##ili": 1859,
      "here": 1860,
      "further": 1861,
      "17": 1862,
      "sold": 1863,
      "again": 1864,
      "sched": 1865,
      "health": 1866,
      "##da": 1867,
      "growth": 1868,
      "complet": 1869,
      "respect": 1870,
      "policies": 1871,
      "return": 1872,
      "50": 1873,
      "##str": 1874,
      "provides": 1875,
      "##ether": 1876,
      "##eric": 1877,
      "above": 1878,
      "incurred": 1879,
      "corporate": 1880,
      "estate": 1881,
      "success": 1882,
      "impro": 1883,
      "##ural": 1884,
      "four": 1885,
      "##ware": 1886,
      "november": 1887,
      "both": 1888,
      "larg": 1889,
      "exc": 1890,
      "##earch": 1891,
      "inf": 1892,
      "fl": 1893,
      "##stit": 1894,
      "indic": 1895,
      "##ort": 1896,
      "review": 1897,
      "against": 1898,
      "##will": 1899,
      "risks": 1900,
      "follows": 1901,
      "consum": 1902,
      "##ests": 1903,
      "series": 1904,
      "aug": 1905,
      "##ages": 1906,
      "oil": 1907,
      "entered": 1908,
      "del": 1909,
      "##ble": 1910,
      "some": 1911,
      "amended": 1912,
      "they": 1913,
      "assump": 1914,
      "sc": 1915,
      "employee": 1916,
      "goodwill": 1917,
      "contrib": 1918,
      "dividends": 1919,
      "bu": 1920,
      "##ules": 1921,
      "security": 1922,
      "adversely": 1923,
      "##sp": 1924,
      "##ious": 1925,
      "portfolio": 1926,
      "28": 1927,
      "reported": 1928,
      "lower": 1929,
      "##ically": 1930,
      "portion": 1931,
      "2018": 1932,
      "august": 1933,
      "subsidiary": 1934,
      "##esting": 1935,
      "approval": 1936,
      "##tific": 1937,
      "order": 1938,
      "##quent": 1939,
      "##tern": 1940,
      "fix": 1941,
      "ro": 1942,
      "hist": 1943,
      "proced": 1944,
      "arrang": 1945,
      "carrying": 1946,
      "##ensive": 1947,
      "does": 1948,
      "typ": 1949,
      "summ": 1950,
      "however": 1951,
      "account": 1952,
      "recover": 1953,
      "##uction": 1954,
      "thous": 1955,
      "maj": 1956,
      "section": 1957,
      "need": 1958,
      "economic": 1959,
      "##ecess": 1960,
      "##arm": 1961,
      "##encies": 1962,
      "transaction": 1963,
      "line": 1964,
      "##pri": 1965,
      "fail": 1966,
      "aggregate": 1967,
      "contain": 1968,
      "research": 1969,
      "21": 1970,
      "##ven": 1971,
      "americ": 1972,
      "major": 1973,
      "iden": 1974,
      "among": 1975,
      "payable": 1976,
      "compliance": 1977,
      "sever": 1978,
      "sett": 1979,
      "##inated": 1980,
      "instit": 1981,
      "ownership": 1982,
      "only": 1983,
      "higher": 1984,
      "deli": 1985,
      "cent": 1986,
      "invent": 1987,
      "international": 1988,
      "limit": 1989,
      "##ompan": 1990,
      "granted": 1991,
      "##prec": 1992,
      "compon": 1993,
      "prot": 1994,
      "##ak": 1995,
      "hedg": 1996,
      "##ward": 1997,
      "affili": 1998,
      "po": 1999,
      "leases": 2000,
      "profit": 2001,
      "relations": 2002,
      "legal": 2003,
      "##crib": 2004,
      "procedures": 2005,
      "##ule": 2006,
      "##ension": 2007,
      "allowance": 2008,
      "specific": 2009,
      "defined": 2010,
      "assumptions": 2011,
      "deliver": 2012,
      "analys": 2013,
      "soft": 2014,
      "guar": 2015,
      "valuation": 2016,
      "##egr": 2017,
      "exce": 2018,
      "life": 2019,
      "fixed": 2020,
      "about": 2021,
      "regarding": 2022,
      "controls": 2023,
      "utili": 2024,
      "guarant": 2025,
      "##led": 2026,
      "##ulated": 2027,
      "provisions": 2028,
      "offset": 2029,
      "proceeds": 2030,
      "neg": 2031,
      "respons": 2032,
      "disclosure": 2033,
      "commun": 2034,
      "##her": 2035,
      "resources": 2036,
      "integr": 2037,
      "##ised": 2038,
      "intang": 2039,
      "22": 2040,
      "assurance": 2041,
      "##ular": 2042,
      "24": 2043,
      "previous": 2044,
      "##vers": 2045,
      "##inion": 2046,
      "matur": 2047,
      "29": 2048,
      "months": 2049,
      "100": 2050,
      "whol": 2051,
      "represent": 2052,
      "manufacturing": 2053,
      "conduc": 2054,
      "##rement": 2055,
      "##ilar": 2056,
      "##man": 2057,
      "most": 2058,
      "##als": 2059,
      "natural": 2060,
      "purposes": 2061,
      "##ollar": 2062,
      "requires": 2063,
      "software": 2064,
      "27": 2065,
      "##nel": 2066,
      "invol": 2067,
      "begin": 2068,
      "similar": 2069,
      "shareholders": 2070,
      "expect": 2071,
      "rest": 2072,
      "reasonable": 2073,
      "constr": 2074,
      "##til": 2075,
      "parties": 2076,
      "##unc": 2077,
      "##ium": 2078,
      "##irc": 2079,
      "##one": 2080,
      "23": 2081,
      "where": 2082,
      "incen": 2083,
      "minim": 2084,
      "##ness": 2085,
      "llc": 2086,
      "unit": 2087,
      "discoun": 2088,
      "gross": 2089,
      "wr": 2090,
      "circ": 2091,
      "liv": 2092,
      "proj": 2093,
      "##ute": 2094,
      "dollar": 2095,
      "matters": 2096,
      "opinion": 2097,
      "histor": 2098,
      "partners": 2099,
      "fas": 2100,
      "exercise": 2101,
      "accru": 2102,
      "dispos": 2103,
      "thousands": 2104,
      "anticip": 2105,
      "alloc": 2106,
      "remaining": 2107,
      "##inical": 2108,
      "amortization": 2109,
      "initial": 2110,
      "administrative": 2111,
      "necess": 2112,
      "clos": 2113,
      "##ables": 2114,
      "restricted": 2115,
      "actual": 2116,
      "network": 2117,
      "being": 2118,
      "sel": 2119,
      "orig": 2120,
      "short": 2121,
      "acquisitions": 2122,
      "until": 2123,
      "rent": 2124,
      "##ety": 2125,
      "like": 2126,
      "expend": 2127,
      "able": 2128,
      "198": 2129,
      "partner": 2130,
      "relationship": 2131,
      "whether": 2132,
      "issuance": 2133,
      "demand": 2134,
      "##sequent": 2135,
      "accompan": 2136,
      "26": 2137,
      "##dr": 2138,
      "herein": 2139,
      "33": 2140,
      "support": 2141,
      "stor": 2142,
      "merg": 2143,
      "analysis": 2144,
      "resulting": 2145,
      "##ivers": 2146,
      "priv": 2147,
      "##ences": 2148,
      "##preciation": 2149,
      "relating": 2150,
      "national": 2151,
      "license": 2152,
      "em": 2153,
      "40": 2154,
      "##ividual": 2155,
      "individual": 2156,
      "##asing": 2157,
      "while": 2158,
      "she": 2159,
      "vice": 2160,
      "forth": 2161,
      "##ival": 2162,
      "experience": 2163,
      "trading": 2164,
      "event": 2165,
      "accompanying": 2166,
      "occur": 2167,
      "government": 2168,
      "##ict": 2169,
      "##ister": 2170,
      "events": 2171,
      "sa": 2172,
      "same": 2173,
      "believes": 2174,
      "1994": 2175,
      "retail": 2176,
      "te": 2177,
      "local": 2178,
      "organ": 2179,
      "awards": 2180,
      "quarterly": 2181,
      "##king": 2182,
      "##ield": 2183,
      "##itures": 2184,
      "##pl": 2185,
      "pen": 2186,
      "receivable": 2187,
      "five": 2188,
      "##tigation": 2189,
      "excess": 2190,
      "discussion": 2191,
      "##less": 2192,
      "who": 2193,
      "guid": 2194,
      "environmental": 2195,
      "accrued": 2196,
      "##emb": 2197,
      "##icient": 2198,
      "intangible": 2199,
      "##tirement": 2200,
      "##ian": 2201,
      "currency": 2202,
      "prem": 2203,
      "second": 2204,
      "offering": 2205,
      "##ither": 2206,
      "equival": 2207,
      "derivative": 2208,
      "##holder": 2209,
      "full": 2210,
      "##certain": 2211,
      "consist": 2212,
      "clinical": 2213,
      "incentive": 2214,
      "meet": 2215,
      "equal": 2216,
      "established": 2217,
      "certific": 2218,
      "many": 2219,
      "interests": 2220,
      "prom": 2221,
      "##ild": 2222,
      "##cribed": 2223,
      "reserves": 2224,
      "##udg": 2225,
      "##ater": 2226,
      "court": 2227,
      "sm": 2228,
      "margin": 2229,
      "identif": 2230,
      "percentage": 2231,
      "reduce": 2232,
      "expos": 2233,
      "ten": 2234,
      "##enture": 2235,
      "calc": 2236,
      "charge": 2237,
      "uncertain": 2238,
      "##inal": 2239,
      "base": 2240,
      "mul": 2241,
      "must": 2242,
      "ge": 2243,
      "decreased": 2244,
      "capac": 2245,
      "principles": 2246,
      "utiliz": 2247,
      "beginning": 2248,
      "##urch": 2249,
      "##iss": 2250,
      "cover": 2251,
      "charges": 2252,
      "suppli": 2253,
      "tre": 2254,
      "except": 2255,
      "great": 2256,
      "special": 2257,
      "sw": 2258,
      "according": 2259,
      "##tim": 2260,
      "##abor": 2261,
      "without": 2262,
      "programs": 2263,
      "receive": 2264,
      "warrants": 2265,
      "dil": 2266,
      "##ood": 2267,
      "rati": 2268,
      "affected": 2269,
      "quality": 2270,
      "expenditures": 2271,
      "located": 2272,
      "previously": 2273,
      "suff": 2274,
      "##omes": 2275,
      "##ateral": 2276,
      "office": 2277,
      "liquidity": 2278,
      "levels": 2279,
      "recent": 2280,
      "substantially": 2281,
      "completed": 2282,
      "##ification": 2283,
      "att": 2284,
      "kn": 2285,
      "before": 2286,
      "subsequent": 2287,
      "##atives": 2288,
      "volum": 2289,
      "met": 2290,
      "##ibility": 2291,
      "sheet": 2292,
      "##bs": 2293,
      "approved": 2294,
      "employment": 2295,
      "holders": 2296,
      "##ene": 2297,
      "should": 2298,
      "forward": 2299,
      "competitive": 2300,
      "joint": 2301,
      "##reh": 2302,
      "compreh": 2303,
      "values": 2304,
      "comprehensive": 2305,
      "regulation": 2306,
      "increases": 2307,
      "construction": 2308,
      "air": 2309,
      "comple": 2310,
      "00": 2311,
      "fee": 2312,
      "materially": 2313,
      "##eng": 2314,
      "either": 2315,
      "##anch": 2316,
      "##ption": 2317,
      "converti": 2318,
      "bene": 2319,
      "##ession": 2320,
      "repurch": 2321,
      "iii": 2322,
      "depreciation": 2323,
      "benefic": 2324,
      "convertible": 2325,
      "arrangements": 2326,
      "##istered": 2327,
      "inventory": 2328,
      "exceed": 2329,
      "ca": 2330,
      "firm": 2331,
      "minimum": 2332,
      "necessary": 2333,
      "access": 2334,
      "purchased": 2335,
      "##ists": 2336,
      "35": 2337,
      "##ope": 2338,
      "policy": 2339,
      "collateral": 2340,
      "attrib": 2341,
      "gains": 2342,
      "holdings": 2343,
      "weigh": 2344,
      "billion": 2345,
      "cli": 2346,
      "75": 2347,
      "##lying": 2348,
      "reports": 2349,
      "cor": 2350,
      "cont": 2351,
      "retain": 2352,
      "ach": 2353,
      "##ested": 2354,
      "##ins": 2355,
      "##co": 2356,
      "circum": 2357,
      "##bur": 2358,
      "##isted": 2359,
      "##pa": 2360,
      "achie": 2361,
      "##mitted": 2362,
      "electric": 2363,
      "##hic": 2364,
      "##ended": 2365,
      "entity": 2366,
      "extent": 2367,
      "##lity": 2368,
      "fasb": 2369,
      "described": 2370,
      "poss": 2371,
      "##wise": 2372,
      "##alf": 2373,
      "wor": 2374,
      "pension": 2375,
      "500": 2376,
      "weighted": 2377,
      "partic": 2378,
      "considered": 2379,
      "multi": 2380,
      "plus": 2381,
      "businesses": 2382,
      "##bal": 2383,
      "##ks": 2384,
      "bro": 2385,
      "down": 2386,
      "significantly": 2387,
      "days": 2388,
      "registration": 2389,
      "circumst": 2390,
      "eur": 2391,
      "build": 2392,
      "borrowings": 2393,
      "secured": 2394,
      "memb": 2395,
      "successful": 2396,
      "holding": 2397,
      "prepar": 2398,
      "patent": 2399,
      "otherwise": 2400,
      "entities": 2401,
      "settlement": 2402,
      "merger": 2403,
      "adopted": 2404,
      "##te": 2405,
      "circumstances": 2406,
      "key": 2407,
      "conting": 2408,
      "rules": 2409,
      "reduced": 2410,
      "assum": 2411,
      "##ier": 2412,
      "litigation": 2413,
      "file": 2414,
      "several": 2415,
      "large": 2416,
      "##ories": 2417,
      "particular": 2418,
      "cod": 2419,
      "greater": 2420,
      "members": 2421,
      "amendment": 2422,
      "supply": 2423,
      "prac": 2424,
      "cause": 2425,
      "model": 2426,
      "advis": 2427,
      "reduction": 2428,
      "rele": 2429,
      "accep": 2430,
      "then": 2431,
      "implement": 2432,
      "##ining": 2433,
      "presented": 2434,
      "selling": 2435,
      "separ": 2436,
      "judg": 2437,
      "glo": 2438,
      "private": 2439,
      "his": 2440,
      "aut": 2441,
      "##eness": 2442,
      "commitments": 2443,
      "##rug": 2444,
      "technologies": 2445,
      "##go": 2446,
      "deposit": 2447,
      "resid": 2448,
      "##avor": 2449,
      "reserve": 2450,
      "targ": 2451,
      "##lation": 2452,
      "##olving": 2453,
      "##aff": 2454,
      "recognition": 2455,
      "competition": 2456,
      "##equ": 2457,
      "maturity": 2458,
      "estimate": 2459,
      "likely": 2460,
      "back": 2461,
      "60": 2462,
      "premium": 2463,
      "right": 2464,
      "##enced": 2465,
      "##sue": 2466,
      "##iting": 2467,
      "##ph": 2468,
      "sou": 2469,
      "exclud": 2470,
      "##unction": 2471,
      "served": 2472,
      "trial": 2473,
      "disclosures": 2474,
      "expir": 2475,
      "relationships": 2476,
      "accepted": 2477,
      "##dic": 2478,
      "adequ": 2479,
      "care": 2480,
      "termination": 2481,
      "drug": 2482,
      "##eets": 2483,
      "lead": 2484,
      "measur": 2485,
      "consumer": 2486,
      "##ably": 2487,
      "global": 2488,
      "historical": 2489,
      "##ications": 2490,
      "restruct": 2491,
      "contractual": 2492,
      "capacity": 2493,
      "personnel": 2494,
      "pred": 2495,
      "alth": 2496,
      "although": 2497,
      "##portun": 2498,
      "pricing": 2499,
      "accounted": 2500,
      "opportun": 2501,
      "components": 2502,
      "attribut": 2503,
      "appropri": 2504,
      "competit": 2505,
      "beneficial": 2506,
      "adverti": 2507,
      "##uel": 2508,
      "negative": 2509,
      "##atis": 2510,
      "##ton": 2511,
      "treat": 2512,
      "index": 2513,
      "case": 2514,
      "retirement": 2515,
      "mainten": 2516,
      "maintenance": 2517,
      "##sed": 2518,
      "finance": 2519,
      "car": 2520,
      "##mission": 2521,
      "accordingly": 2522,
      "become": 2523,
      "##ale": 2524,
      "post": 2525,
      "primary": 2526,
      "advertis": 2527,
      "##used": 2528,
      "vo": 2529,
      "registered": 2530,
      "adoption": 2531,
      "vi": 2532,
      "distributions": 2533,
      "determine": 2534,
      "standard": 2535,
      "deposits": 2536,
      "sufficient": 2537,
      "dam": 2538,
      "div": 2539,
      "##uctu": 2540,
      "fluctu": 2541,
      "action": 2542,
      "guidance": 2543,
      "pati": 2544,
      "##ics": 2545,
      "materials": 2546,
      "medical": 2547,
      "accum": 2548,
      "countr": 2549,
      "did": 2550,
      "dev": 2551,
      "##lus": 2552,
      "adjustments": 2553,
      "partial": 2554,
      "1993": 2555,
      "##orts": 2556,
      "broad": 2557,
      "fourth": 2558,
      "bl": 2559,
      "##ensed": 2560,
      "##itive": 2561,
      "##ators": 2562,
      "applications": 2563,
      "##acted": 2564,
      "##lied": 2565,
      "amortized": 2566,
      "stud": 2567,
      "##ender": 2568,
      "north": 2569,
      "items": 2570,
      "adjusted": 2571,
      "project": 2572,
      "##edi": 2573,
      "##etary": 2574,
      "america": 2575,
      "imm": 2576,
      "plant": 2577,
      "##tice": 2578,
      "land": 2579,
      "unable": 2580,
      "competitors": 2581,
      "beh": 2582,
      "trade": 2583,
      "##iven": 2584,
      "##iter": 2585,
      "attributable": 2586,
      "therefore": 2587,
      "##ectiv": 2588,
      "193": 2589,
      "failure": 2590,
      "concer": 2591,
      "evaluation": 2592,
      "cre": 2593,
      "equivalents": 2594,
      "shall": 2595,
      "##ret": 2596,
      "##ote": 2597,
      "32": 2598,
      "funding": 2599,
      "ther": 2600,
      "supplement": 2601,
      "convers": 2602,
      "prob": 2603,
      "revolving": 2604,
      "assessment": 2605,
      "col": 2606,
      "reflect": 2607,
      "tem": 2608,
      "summary": 2609,
      "investors": 2610,
      "activity": 2611,
      "conversion": 2612,
      "foc": 2613,
      "appropriate": 2614,
      "##tics": 2615,
      "region": 2616,
      "overall": 2617,
      "sur": 2618,
      "sheets": 2619,
      "authorized": 2620,
      "rene": 2621,
      "delay": 2622,
      "improv": 2623,
      "accumulated": 2624,
      "application": 2625,
      "working": 2626,
      "##ally": 2627,
      "mer": 2628,
      "consideration": 2629,
      "mee": 2630,
      "conf": 2631,
      "world": 2632,
      "##leg": 2633,
      "dividend": 2634,
      "resulted": 2635,
      "affiliates": 2636,
      "meeting": 2637,
      "decision": 2638,
      "proceedings": 2639,
      "34": 2640,
      "them": 2641,
      "fda": 2642,
      "restructuring": 2643,
      "##press": 2644,
      "defa": 2645,
      "carry": 2646,
      "actions": 2647,
      "manufactur": 2648,
      "##izes": 2649,
      "cali": 2650,
      "positions": 2651,
      "home": 2652,
      "schedule": 2653,
      "decline": 2654,
      "infr": 2655,
      "##art": 2656,
      "##by": 2657,
      "##nia": 2658,
      "fuel": 2659,
      "ratio": 2660,
      "##yal": 2661,
      "designed": 2662,
      "propos": 2663,
      "##imbur": 2664,
      "##ucture": 2665,
      "45": 2666,
      "efforts": 2667,
      "cle": 2668,
      "90": 2669,
      "closing": 2670,
      "servicing": 2671,
      "##eb": 2672,
      "former": 2673,
      "diffic": 2674,
      "fully": 2675,
      "directly": 2676,
      "##rap": 2677,
      "reimbur": 2678,
      "strategy": 2679,
      "york": 2680,
      "original": 2681,
      "solutions": 2682,
      "past": 2683,
      "##land": 2684,
      "##crip": 2685,
      "califor": 2686,
      "california": 2687,
      "obligation": 2688,
      "award": 2689,
      "let": 2690,
      "jo": 2691,
      "operate": 2692,
      "autom": 2693,
      "##ource": 2694,
      "intr": 2695,
      "##xy": 2696,
      "corr": 2697,
      "36": 2698,
      "satis": 2699,
      "super": 2700,
      "entit": 2701,
      "renew": 2702,
      "##ina": 2703,
      "operation": 2704,
      "code": 2705,
      "coven": 2706,
      "##ectiveness": 2707,
      "additionally": 2708,
      "warrant": 2709,
      "test": 2710,
      "advertising": 2711,
      "sing": 2712,
      "combination": 2713,
      "low": 2714,
      "##ada": 2715,
      "##ury": 2716,
      "##tit": 2717,
      "compr": 2718,
      "##omm": 2719,
      "##emed": 2720,
      "small": 2721,
      "dollars": 2722,
      "##ify": 2723,
      "segments": 2724,
      "##going": 2725,
      "range": 2726,
      "volume": 2727,
      "compet": 2728,
      "open": 2729,
      "exposure": 2730,
      "##entures": 2731,
      "repurchase": 2732,
      "represents": 2733,
      "volati": 2734,
      "##ather": 2735,
      "europe": 2736,
      "criter": 2737,
      "pharm": 2738,
      "realized": 2739,
      "majority": 2740,
      "enh": 2741,
      "purchases": 2742,
      "venture": 2743,
      "ded": 2744,
      "##acy": 2745,
      "##ecting": 2746,
      "swap": 2747,
      "##itical": 2748,
      "classified": 2749,
      "issue": 2750,
      "la": 2751,
      "discussed": 2752,
      "partially": 2753,
      "lived": 2754,
      "tele": 2755,
      "underlying": 2756,
      "cand": 2757,
      "##ulation": 2758,
      "doc": 2759,
      "bre": 2760,
      "audits": 2761,
      "member": 2762,
      "free": 2763,
      "criteria": 2764,
      "37": 2765,
      "acquire": 2766,
      "engine": 2767,
      "effectiveness": 2768,
      "patents": 2769,
      "institutions": 2770,
      "behalf": 2771,
      "banking": 2772,
      "ul": 2773,
      "discount": 2774,
      "coverage": 2775,
      "sources": 2776,
      "reli": 2777,
      "maxim": 2778,
      "sav": 2779,
      "transfer": 2780,
      "royal": 2781,
      "inp": 2782,
      "qualified": 2783,
      "target": 2784,
      "needs": 2785,
      "nam": 2786,
      "restrictions": 2787,
      "##ind": 2788,
      "favor": 2789,
      "receivables": 2790,
      "profession": 2791,
      "candid": 2792,
      "bear": 2793,
      "generated": 2794,
      "##ept": 2795,
      "mis": 2796,
      "##aged": 2797,
      "brok": 2798,
      "tempor": 2799,
      "##ark": 2800,
      "bond": 2801,
      "##erv": 2802,
      "altern": 2803,
      "possible": 2804,
      "##ising": 2805,
      "delivery": 2806,
      "unre": 2807,
      "wholly": 2808,
      "banks": 2809,
      "##alized": 2810,
      "##osp": 2811,
      "express": 2812,
      "conc": 2813,
      "38": 2814,
      "repl": 2815,
      "taxable": 2816,
      "indicated": 2817,
      "variable": 2818,
      "repay": 2819,
      "prosp": 2820,
      "treatment": 2821,
      "agreed": 2822,
      "tex": 2823,
      "anticipated": 2824,
      "indeb": 2825,
      "indebted": 2826,
      "##ley": 2827,
      "protection": 2828,
      "plac": 2829,
      "##itten": 2830,
      "##itor": 2831,
      "discon": 2832,
      "ga": 2833,
      "specified": 2834,
      "48": 2835,
      "call": 2836,
      "##ps": 2837,
      "effects": 2838,
      "summar": 2839,
      "accept": 2840,
      "indebtedness": 2841,
      "projects": 2842,
      "highly": 2843,
      "chair": 2844,
      "persons": 2845,
      "discontin": 2846,
      "area": 2847,
      "capitalized": 2848,
      "areas": 2849,
      "##ns": 2850,
      "ra": 2851,
      "##ator": 2852,
      "proxy": 2853,
      "balances": 2854,
      "er": 2855,
      "ce": 2856,
      "look": 2857,
      "uns": 2858,
      "outside": 2859,
      "##ge": 2860,
      "##ling": 2861,
      "single": 2862,
      "relative": 2863,
      "labor": 2864,
      "distribut": 2865,
      "docu": 2866,
      "stockholder": 2867,
      "least": 2868,
      "nex": 2869,
      "yield": 2870,
      "install": 2871,
      "respective": 2872,
      "deal": 2873,
      "202": 2874,
      "satisf": 2875,
      "mid": 2876,
      "continuing": 2877,
      "savings": 2878,
      "##vision": 2879,
      "expand": 2880,
      "typically": 2881,
      "distr": 2882,
      "providing": 2883,
      "commod": 2884,
      "different": 2885,
      "controll": 2886,
      "corp": 2887,
      "##limin": 2888,
      "initi": 2889,
      "entitled": 2890,
      "saf": 2891,
      "institution": 2892,
      "residential": 2893,
      "##enting": 2894,
      "intell": 2895,
      "lt": 2896,
      "asc": 2897,
      "developed": 2898,
      "restated": 2899,
      "rede": 2900,
      "##ises": 2901,
      "iv": 2902,
      "##cription": 2903,
      "exam": 2904,
      "intellect": 2905,
      "practic": 2906,
      "stores": 2907,
      "intellectual": 2908,
      "none": 2909,
      "nature": 2910,
      "adjustment": 2911,
      "rule": 2912,
      "subord": 2913,
      "expl": 2914,
      "##ograp": 2915,
      "##ric": 2916,
      "default": 2917,
      "increasing": 2918,
      "active": 2919,
      "##up": 2920,
      "46": 2921,
      "covenants": 2922,
      "##ulative": 2923,
      "asu": 2924,
      "##way": 2925,
      "char": 2926,
      "##ections": 2927,
      "1934": 2928,
      "##wards": 2929,
      "limitations": 2930,
      "##ering": 2931,
      "combined": 2932,
      "multip": 2933,
      "treas": 2934,
      "responsible": 2935,
      "exhibits": 2936,
      "written": 2937,
      "42": 2938,
      "take": 2939,
      "safety": 2940,
      "monthly": 2941,
      "statut": 2942,
      "temporary": 2943,
      "strategic": 2944,
      "presentation": 2945,
      "rental": 2946,
      "counter": 2947,
      "elig": 2948,
      "final": 2949,
      "selected": 2950,
      "##anced": 2951,
      "##illing": 2952,
      "lines": 2953,
      "termin": 2954,
      "##ention": 2955,
      "categ": 2956,
      "##ro": 2957,
      "pe": 2958,
      "internet": 2959,
      "ve": 2960,
      "conver": 2961,
      "##ites": 2962,
      "staff": 2963,
      "chairman": 2964,
      "##izations": 2965,
      "propri": 2966,
      "looking": 2967,
      "comply": 2968,
      "responsibility": 2969,
      "medic": 2970,
      "##he": 2971,
      "den": 2972,
      "##ery": 2973,
      "conduct": 2974,
      "six": 2975,
      "spons": 2976,
      "bi": 2977,
      "communications": 2978,
      "alleg": 2979,
      "american": 2980,
      "mil": 2981,
      "##ms": 2982,
      "adequate": 2983,
      "component": 2984,
      "penal": 2985,
      "##dress": 2986,
      "transport": 2987,
      "proprietary": 2988,
      "address": 2989,
      "##rupt": 2990,
      "next": 2991,
      "unless": 2992,
      "discontinu": 2993,
      "ultim": 2994,
      "complete": 2995,
      "earned": 2996,
      "consists": 2997,
      "charged": 2998,
      "generation": 2999,
      "squ": 3000,
      "center": 3001,
      "measurement": 3002,
      "contributions": 3003,
      "obj": 3004,
      "manage": 3005,
      "add": 3006,
      "forec": 3007,
      "useful": 3008,
      "found": 3009,
      "##part": 3010,
      "80": 3011,
      "water": 3012,
      "conducted": 3013,
      "39": 3014,
      "allocated": 3015,
      "prec": 3016,
      "timely": 3017,
      "opportunities": 3018,
      "reflected": 3019,
      "##thers": 3020,
      "51": 3021,
      "dates": 3022,
      "brand": 3023,
      "timing": 3024,
      "returns": 3025,
      "fluctuations": 3026,
      "domes": 3027,
      "quan": 3028,
      "early": 3029,
      "voting": 3030,
      "site": 3031,
      "es": 3032,
      "ship": 3033,
      "evaluating": 3034,
      "rating": 3035,
      "41": 3036,
      "99": 3037,
      "##uris": 3038,
      "gaap": 3039,
      "countries": 3040,
      "##ne": 3041,
      "ltd": 3042,
      "last": 3043,
      "##ouse": 3044,
      "agencies": 3045,
      "exclus": 3046,
      "55": 3047,
      "65": 3048,
      "issues": 3049,
      "compu": 3050,
      "attr": 3051,
      "electron": 3052,
      "immedi": 3053,
      "division": 3054,
      "differences": 3055,
      "read": 3056,
      "##emption": 3057,
      "tel": 3058,
      "##idence": 3059,
      "vesting": 3060,
      "things": 3061,
      "district": 3062,
      "enterpr": 3063,
      "depart": 3064,
      "testing": 3065,
      "square": 3066,
      "volatility": 3067,
      "##aud": 3068,
      "reimburs": 3069,
      "##lass": 3070,
      "suppliers": 3071,
      "##cc": 3072,
      "assumed": 3073,
      "managing": 3074,
      "subordinated": 3075,
      "juris": 3076,
      "ir": 3077,
      "cum": 3078,
      "##emn": 3079,
      "texas": 3080,
      "dependent": 3081,
      "availability": 3082,
      "conform": 3083,
      "pip": 3084,
      "compete": 3085,
      "diluted": 3086,
      "monitor": 3087,
      "##utical": 3088,
      "44": 3089,
      "fre": 3090,
      "##thern": 3091,
      "maximum": 3092,
      "43": 3093,
      "univers": 3094,
      "##ick": 3095,
      "##err": 3096,
      "known": 3097,
      "owners": 3098,
      "tak": 3099,
      "reasonably": 3100,
      "inputs": 3101,
      "jurisdic": 3102,
      "head": 3103,
      "recovery": 3104,
      "space": 3105,
      "##aceutical": 3106,
      "52": 3107,
      "phys": 3108,
      "top": 3109,
      "certificate": 3110,
      "##wr": 3111,
      "south": 3112,
      "2019": 3113,
      "##inary": 3114,
      "indemn": 3115,
      "##line": 3116,
      "deemed": 3117,
      "preparation": 3118,
      "accr": 3119,
      "ste": 3120,
      "contingent": 3121,
      "schedules": 3122,
      "sole": 3123,
      "##els": 3124,
      "discontinued": 3125,
      "##igned": 3126,
      "hedge": 3127,
      "variety": 3128,
      "depend": 3129,
      "unr": 3130,
      "covered": 3131,
      "longer": 3132,
      "domestic": 3133,
      "47": 3134,
      "##ino": 3135,
      "clients": 3136,
      "##ength": 3137,
      "##paid": 3138,
      "##care": 3139,
      "eligible": 3140,
      "franch": 3141,
      "123": 3142,
      "##ah": 3143,
      "focus": 3144,
      "hot": 3145,
      "cy": 3146,
      "name": 3147,
      "broker": 3148,
      "processing": 3149,
      "##bit": 3150,
      "industrial": 3151,
      "others": 3152,
      "norm": 3153,
      "completion": 3154,
      "improvements": 3155,
      "wells": 3156,
      "##amp": 3157,
      "##ulting": 3158,
      "vir": 3159,
      "professional": 3160,
      "manufacturers": 3161,
      "signed": 3162,
      "tit": 3163,
      "separate": 3164,
      "candidates": 3165,
      "ongoing": 3166,
      "cumulative": 3167,
      "defic": 3168,
      "expire": 3169,
      "##aging": 3170,
      "legis": 3171,
      "measured": 3172,
      "49": 3173,
      "basic": 3174,
      "patients": 3175,
      "totaled": 3176,
      "##retion": 3177,
      "##ane": 3178,
      "disposition": 3179,
      "1992": 3180,
      "hand": 3181,
      "##of": 3182,
      "judgment": 3183,
      "consulting": 3184,
      "recognize": 3185,
      "place": 3186,
      "practices": 3187,
      "given": 3188,
      "70": 3189,
      "providers": 3190,
      "performed": 3191,
      "lives": 3192,
      "fo": 3193,
      "reins": 3194,
      "making": 3195,
      "85": 3196,
      "anti": 3197,
      "store": 3198,
      "calculated": 3199,
      "experienced": 3200,
      "dou": 3201,
      "fam": 3202,
      "profitability": 3203,
      "obs": 3204,
      "bon": 3205,
      "cases": 3206,
      "##aster": 3207,
      "association": 3208,
      "healthcare": 3209,
      "underwr": 3210,
      "unrealized": 3211,
      "53": 3212,
      "building": 3213,
      "##ov": 3214,
      "technical": 3215,
      "interp": 3216,
      "##eed": 3217,
      "audited": 3218,
      "commodity": 3219,
      "##ology": 3220,
      "integrated": 3221,
      "alternative": 3222,
      "sets": 3223,
      "notice": 3224,
      "merch": 3225,
      "##astr": 3226,
      "##oti": 3227,
      "##wide": 3228,
      "consult": 3229,
      "##cy": 3230,
      "elimin": 3231,
      "pharmaceutical": 3232,
      "terminated": 3233,
      "impaired": 3234,
      "##urring": 3235,
      "stated": 3236,
      "environment": 3237,
      "storage": 3238,
      "##centr": 3239,
      "##oted": 3240,
      "detail": 3241,
      "food": 3242,
      "derivatives": 3243,
      "manager": 3244,
      "explor": 3245,
      "identified": 3246,
      "01": 3247,
      "pending": 3248,
      "##ptions": 3249,
      "inher": 3250,
      "named": 3251,
      "even": 3252,
      "deg": 3253,
      "seek": 3254,
      "concentr": 3255,
      "inves": 3256,
      "ens": 3257,
      "prevent": 3258,
      "pass": 3259,
      "remed": 3260,
      "bankrupt": 3261,
      "excluding": 3262,
      "replac": 3263,
      "consistent": 3264,
      "##lem": 3265,
      "course": 3266,
      "owner": 3267,
      "##ping": 3268,
      "import": 3269,
      "inherent": 3270,
      "critical": 3271,
      "##tional": 3272,
      "damages": 3273,
      "favorable": 3274,
      "industries": 3275,
      "71": 3276,
      "generate": 3277,
      "defend": 3278,
      "trials": 3279,
      "62": 3280,
      "proposed": 3281,
      "plat": 3282,
      "sponsor": 3283,
      "stra": 3284,
      "introd": 3285,
      "penalties": 3286,
      "llp": 3287,
      "transportation": 3288,
      "prep": 3289,
      "defin": 3290,
      "cop": 3291,
      "status": 3292,
      "pipel": 3293,
      "viol": 3294,
      "enfor": 3295,
      "consolidation": 3296,
      "##etr": 3297,
      "vend": 3298,
      "permitted": 3299,
      "measure": 3300,
      "measures": 3301,
      "multiple": 3302,
      "geograp": 3303,
      "##ansion": 3304,
      "bonus": 3305,
      "hedging": 3306,
      "flo": 3307,
      "applied": 3308,
      "##aft": 3309,
      "phase": 3310,
      "agency": 3311,
      "resol": 3312,
      "##atures": 3313,
      "obtained": 3314,
      "listed": 3315,
      "straight": 3316,
      "##aur": 3317,
      "cell": 3318,
      "function": 3319,
      "66": 3320,
      "interim": 3321,
      "platform": 3322,
      "maturities": 3323,
      "collabor": 3324,
      "shareholder": 3325,
      "dig": 3326,
      "agent": 3327,
      "reclass": 3328,
      "vary": 3329,
      "expansion": 3330,
      "statutory": 3331,
      "book": 3332,
      "arrangement": 3333,
      "acr": 3334,
      "organizations": 3335,
      "wa": 3336,
      "redemption": 3337,
      "negoti": 3338,
      "leased": 3339,
      "principally": 3340,
      "referred": 3341,
      "##bt": 3342,
      "##inations": 3343,
      "contained": 3344,
      "ms": 3345,
      "bankruptcy": 3346,
      "restaur": 3347,
      "##illed": 3348,
      "##isable": 3349,
      "vehic": 3350,
      "plain": 3351,
      "source": 3352,
      "##other": 3353,
      "##ral": 3354,
      "refin": 3355,
      "permit": 3356,
      "56": 3357,
      "approach": 3358,
      "deduc": 3359,
      "outc": 3360,
      "##vant": 3361,
      "authorities": 3362,
      "pack": 3363,
      "china": 3364,
      "caused": 3365,
      "##ico": 3366,
      "purpose": 3367,
      "indirect": 3368,
      "uses": 3369,
      "authority": 3370,
      "successfully": 3371,
      "54": 3372,
      "exercisable": 3373,
      "cance": 3374,
      "##arters": 3375,
      "personal": 3376,
      "carryfor": 3377,
      "##active": 3378,
      "pool": 3379,
      "82": 3380,
      "chan": 3381,
      "manner": 3382,
      "determining": 3383,
      "##ices": 3384,
      "determination": 3385,
      "annually": 3386,
      "licenses": 3387,
      "evidence": 3388,
      "complex": 3389,
      "grants": 3390,
      "##aware": 3391,
      "fle": 3392,
      "achieve": 3393,
      "bonds": 3394,
      "salary": 3395,
      "harm": 3396,
      "you": 3397,
      "utility": 3398,
      "95": 3399,
      "types": 3400,
      "gam": 3401,
      "upd": 3402,
      "nas": 3403,
      "ed": 3404,
      "declar": 3405,
      "might": 3406,
      "difficult": 3407,
      "canada": 3408,
      "##aining": 3409,
      "##arb": 3410,
      "57": 3411,
      "uncertainties": 3412,
      "stre": 3413,
      "therap": 3414,
      "##ison": 3415,
      "intend": 3416,
      "examp": 3417,
      "department": 3418,
      "##esp": 3419,
      "traded": 3420,
      "twel": 3421,
      "write": 3422,
      "exclusive": 3423,
      "computer": 3424,
      "announ": 3425,
      "lawsu": 3426,
      "managed": 3427,
      "anticipate": 3428,
      "##acter": 3429,
      "comparable": 3430,
      "channel": 3431,
      "occurred": 3432,
      "74": 3433,
      "##eto": 3434,
      "tradem": 3435,
      "family": 3436,
      "orders": 3437,
      "lib": 3438,
      "twelve": 3439,
      "participants": 3440,
      "delaware": 3441,
      "ending": 3442,
      "discretion": 3443,
      "treasury": 3444,
      "filing": 3445,
      "hosp": 3446,
      "accrual": 3447,
      "chem": 3448,
      "know": 3449,
      "complain": 3450,
      "taken": 3451,
      "suppor": 3452,
      "derived": 3453,
      "##br": 3454,
      "interpret": 3455,
      "premiums": 3456,
      "##junction": 3457,
      "best": 3458,
      "normal": 3459,
      "totaling": 3460,
      "wide": 3461,
      "##ax": 3462,
      "transmission": 3463,
      "##read": 3464,
      "card": 3465,
      "step": 3466,
      "transition": 3467,
      "locations": 3468,
      "quoted": 3469,
      "58": 3470,
      "comprised": 3471,
      "##ath": 3472,
      "unc": 3473,
      "licens": 3474,
      "respects": 3475,
      "##uled": 3476,
      "engineering": 3477,
      "throughout": 3478,
      "du": 3479,
      "unsec": 3480,
      "webs": 3481,
      "cable": 3482,
      "city": 3483,
      "##az": 3484,
      "unsecured": 3485,
      "##itiz": 3486,
      "prohib": 3487,
      "63": 3488,
      "immediately": 3489,
      "page": 3490,
      "vested": 3491,
      "administration": 3492,
      "operational": 3493,
      "offices": 3494,
      "lending": 3495,
      "engaged": 3496,
      "81": 3497,
      "##eler": 3498,
      "degree": 3499,
      "weak": 3500,
      "breach": 3501,
      "represented": 3502,
      "feet": 3503,
      "inventories": 3504,
      "##ole": 3505,
      "core": 3506,
      "parent": 3507,
      "87": 3508,
      "entire": 3509,
      "mc": 3510,
      "partnerships": 3511,
      "coal": 3512,
      "involved": 3513,
      "##ned": 3514,
      "effectively": 3515,
      "royalty": 3516,
      "frame": 3517,
      "consisted": 3518,
      "##iqu": 3519,
      "counterpar": 3520,
      "manufacture": 3521,
      "type": 3522,
      "master": 3523,
      "developing": 3524,
      "##ually": 3525,
      "owns": 3526,
      "trends": 3527,
      "wire": 3528,
      "largest": 3529,
      "ensure": 3530,
      "tog": 3531,
      "evaluate": 3532,
      "borrowing": 3533,
      "furn": 3534,
      "centers": 3535,
      "##bile": 3536,
      "disposal": 3537,
      "rang": 3538,
      "west": 3539,
      "money": 3540,
      "designated": 3541,
      "59": 3542,
      "reimbursement": 3543,
      "61": 3544,
      "drilling": 3545,
      "##tiff": 3546,
      "impacted": 3547,
      "trustee": 3548,
      "university": 3549,
      "elected": 3550,
      "processes": 3551,
      "eth": 3552,
      "##ervable": 3553,
      "borrower": 3554,
      "plaintiff": 3555,
      "reflects": 3556,
      "together": 3557,
      "64": 3558,
      "exploration": 3559,
      "sens": 3560,
      "advances": 3561,
      "vest": 3562,
      "became": 3563,
      "rad": 3564,
      "300": 3565,
      "hospital": 3566,
      "redeem": 3567,
      "##yl": 3568,
      "intended": 3569,
      "contribution": 3570,
      "governmental": 3571,
      "##ature": 3572,
      "##stat": 3573,
      "example": 3574,
      "clear": 3575,
      "black": 3576,
      "predict": 3577,
      "apply": 3578,
      "investor": 3579,
      "##iver": 3580,
      "conclud": 3581,
      "character": 3582,
      "projected": 3583,
      "terr": 3584,
      "margins": 3585,
      "structure": 3586,
      "serve": 3587,
      "overs": 3588,
      "receip": 3589,
      "offerings": 3590,
      "point": 3591,
      "emerg": 3592,
      "telec": 3593,
      "reit": 3594,
      "investing": 3595,
      "goods": 3596,
      "face": 3597,
      "67": 3598,
      "holder": 3599,
      "acceler": 3600,
      "##onse": 3601,
      "collection": 3602,
      "##sh": 3603,
      "##sel": 3604,
      "allocation": 3605,
      "##oints": 3606,
      "accountants": 3607,
      "##izing": 3608,
      "advant": 3609,
      "72": 3610,
      "##wh": 3611,
      "sk": 3612,
      "negatively": 3613,
      "media": 3614,
      "guarantee": 3615,
      "02": 3616,
      "sem": 3617,
      "##enders": 3618,
      "98": 3619,
      "near": 3620,
      "response": 3621,
      "protect": 3622,
      "worldwide": 3623,
      "##bo": 3624,
      "relevant": 3625,
      "expects": 3626,
      "vote": 3627,
      "##ifications": 3628,
      "prepay": 3629,
      "wholes": 3630,
      "sci": 3631,
      "enc": 3632,
      "assist": 3633,
      "reinsurance": 3634,
      "funded": 3635,
      "title": 3636,
      "amendments": 3637,
      "fairly": 3638,
      "perm": 3639,
      "##aid": 3640,
      "recon": 3641,
      "impos": 3642,
      "implementation": 3643,
      "conjunction": 3644,
      "digital": 3645,
      "abs": 3646,
      "doubt": 3647,
      "##oles": 3648,
      "hum": 3649,
      "insured": 3650,
      "participation": 3651,
      "250": 3652,
      "##tible": 3653,
      "##ida": 3654,
      "leverage": 3655,
      "##utation": 3656,
      "68": 3657,
      "improve": 3658,
      "divers": 3659,
      "distributors": 3660,
      "duly": 3661,
      "framework": 3662,
      "infring": 3663,
      "limits": 3664,
      "scheduled": 3665,
      "infrastr": 3666,
      "devices": 3667,
      "##ols": 3668,
      "enterprise": 3669,
      "hy": 3670,
      "flor": 3671,
      "operated": 3672,
      "letter": 3673,
      "##orp": 3674,
      "periodic": 3675,
      "now": 3676,
      "organization": 3677,
      "sites": 3678,
      "her": 3679,
      "regional": 3680,
      "##organ": 3681,
      "another": 3682,
      "arising": 3683,
      "southern": 3684,
      "##mb": 3685,
      "stage": 3686,
      "numer": 3687,
      "##reen": 3688,
      "going": 3689,
      "credits": 3690,
      "84": 3691,
      "##edge": 3692,
      "mix": 3693,
      "maintaining": 3694,
      "ebit": 3695,
      "69": 3696,
      "difference": 3697,
      "ordinary": 3698,
      "carryforwards": 3699,
      "consent": 3700,
      "performing": 3701,
      "profits": 3702,
      "county": 3703,
      "occup": 3704,
      "community": 3705,
      "77": 3706,
      "extended": 3707,
      "particularly": 3708,
      "letters": 3709,
      "affiliate": 3710,
      "extr": 3711,
      "conformity": 3712,
      "commitment": 3713,
      "records": 3714,
      "gold": 3715,
      "libor": 3716,
      "close": 3717,
      "began": 3718,
      "infrastructure": 3719,
      "##espond": 3720,
      "05": 3721,
      "correspond": 3722,
      "invested": 3723,
      "times": 3724,
      "field": 3725,
      "representing": 3726,
      "legislation": 3727,
      "03": 3728,
      "press": 3729,
      "73": 3730,
      "outcome": 3731,
      "88": 3732,
      "##hl": 3733,
      "reach": 3734,
      "assessing": 3735,
      "raw": 3736,
      "team": 3737,
      "##daq": 3738,
      "discounted": 3739,
      "union": 3740,
      "nasdaq": 3741,
      "97": 3742,
      "supplemental": 3743,
      "78": 3744,
      "joh": 3745,
      "hel": 3746,
      "##itative": 3747,
      "allowances": 3748,
      "mic": 3749,
      "##ecogn": 3750,
      "76": 3751,
      "equivalent": 3752,
      "depending": 3753,
      "##ron": 3754,
      "valued": 3755,
      "##ished": 3756,
      "recently": 3757,
      "contains": 3758,
      "##yond": 3759,
      "probable": 3760,
      "florida": 3761,
      "thereto": 3762,
      "buy": 3763,
      "season": 3764,
      "83": 3765,
      "complaint": 3766,
      "geographic": 3767,
      "historically": 3768,
      "methods": 3769,
      "futures": 3770,
      "licensing": 3771,
      "automo": 3772,
      "##ifying": 3773,
      "##alleng": 3774,
      "lenders": 3775,
      "uncertainty": 3776,
      "potentially": 3777,
      "##ude": 3778,
      "challeng": 3779,
      "unf": 3780,
      "##tc": 3781,
      "terminate": 3782,
      "misstat": 3783,
      "##istics": 3784,
      "contingencies": 3785,
      "retained": 3786,
      "pipeline": 3787,
      "expiration": 3788,
      "important": 3789,
      "strategies": 3790,
      "presents": 3791,
      "allows": 3792,
      "##eption": 3793,
      "##cil": 3794,
      "television": 3795,
      "involve": 3796,
      "franchise": 3797,
      "##son": 3798,
      "accur": 3799,
      "banc": 3800,
      "volumes": 3801,
      "calcul": 3802,
      "foot": 3803,
      "force": 3804,
      "94": 3805,
      "09": 3806,
      "converted": 3807,
      "exercised": 3808,
      "##ington": 3809,
      "offered": 3810,
      "points": 3811,
      "judgments": 3812,
      "inception": 3813,
      "strong": 3814,
      "86": 3815,
      "liquidation": 3816,
      "fdic": 3817,
      "ebitda": 3818,
      "issuer": 3819,
      "inj": 3820,
      "ventures": 3821,
      "branch": 3822,
      "ultimate": 3823,
      "appe": 3824,
      "promo": 3825,
      "beyond": 3826,
      "website": 3827,
      "ill": 3828,
      "numerous": 3829,
      "licensed": 3830,
      "lab": 3831,
      "decisions": 3832,
      "92": 3833,
      "networks": 3834,
      "extern": 3835,
      "concerning": 3836,
      "91": 3837,
      "##after": 3838,
      "having": 3839,
      "topic": 3840,
      "96": 3841,
      "document": 3842,
      "regular": 3843,
      "##abilities": 3844,
      "description": 3845,
      "raise": 3846,
      "400": 3847,
      "disclosed": 3848,
      "summarizes": 3849,
      "indenture": 3850,
      "##craft": 3851,
      "size": 3852,
      "##ecognized": 3853,
      "operates": 3854,
      "bar": 3855,
      "concluded": 3856,
      "##ectives": 3857,
      "human": 3858,
      "severance": 3859,
      "##omin": 3860,
      "##unctions": 3861,
      "##ousing": 3862,
      "show": 3863,
      "forma": 3864,
      "maintained": 3865,
      "matter": 3866,
      "wholesale": 3867,
      "##lu": 3868,
      "ip": 3869,
      "333": 3870,
      "computed": 3871,
      "prepared": 3872,
      "93": 3873,
      "way": 3874,
      "##ra": 3875,
      "mi": 3876,
      "client": 3877,
      "mex": 3878,
      "unrecognized": 3879,
      "patient": 3880,
      "introduc": 3881,
      "regulated": 3882,
      "jurisdictions": 3883,
      "consisting": 3884,
      "shown": 3885,
      "repair": 3886,
      "reductions": 3887,
      "150": 3888,
      "79": 3889,
      "ver": 3890,
      "age": 3891,
      "often": 3892,
      "whole": 3893,
      "governance": 3894,
      "turn": 3895,
      "contributed": 3896,
      "ever": 3897,
      "rap": 3898,
      "unpaid": 3899,
      "guarantees": 3900,
      "announced": 3901,
      "advanced": 3902,
      "produce": 3903,
      "##cement": 3904,
      "tradition": 3905,
      "chemical": 3906,
      "individuals": 3907,
      "oversight": 3908,
      "197": 3909,
      "electronic": 3910,
      "external": 3911,
      "wireless": 3912,
      "backed": 3913,
      "##iture": 3914,
      "##iers": 3915,
      "paper": 3916,
      "depends": 3917,
      "##agn": 3918,
      "incorporation": 3919,
      "aircraft": 3920,
      "carried": 3921,
      "european": 3922,
      "charter": 3923,
      "evaluated": 3924,
      "satisfy": 3925,
      "identify": 3926,
      "##ommun": 3927,
      "extension": 3928,
      "##ody": 3929,
      "04": 3930,
      "delays": 3931,
      "secret": 3932,
      "instrument": 3933,
      "continues": 3934,
      "89": 3935,
      "teleph": 3936,
      "content": 3937,
      "commissions": 3938,
      "reorgan": 3939,
      "pc": 3940,
      "yet": 3941,
      "##ink": 3942,
      "integral": 3943,
      "06": 3944,
      "modified": 3945,
      "provider": 3946,
      "merchand": 3947,
      "hard": 3948,
      "##eu": 3949,
      "bearing": 3950,
      "wee": 3951,
      "generating": 3952,
      "mich": 3953,
      "##roll": 3954,
      "objectives": 3955,
      "retr": 3956,
      "specialty": 3957,
      "problem": 3958,
      "strength": 3959,
      "annum": 3960,
      "cat": 3961,
      "obtaining": 3962,
      "declared": 3963,
      "difficul": 3964,
      "publish": 3965,
      "underwriting": 3966,
      "web": 3967,
      "##empt": 3968,
      "##tified": 3969,
      "reviewed": 3970,
      "collectively": 3971,
      "waste": 3972,
      "##retirement": 3973,
      "telecommun": 3974,
      "postretirement": 3975,
      "debentures": 3976,
      "leading": 3977,
      "studies": 3978,
      "advance": 3979,
      "guidel": 3980,
      "cond": 3981,
      "constit": 3982,
      "rapid": 3983,
      "ps": 3984,
      "supplementary": 3985,
      "vac": 3986,
      "##int": 3987,
      "analy": 3988,
      "effici": 3989,
      "##ills": 3990,
      "utilized": 3991,
      "measurements": 3992,
      "damage": 3993,
      "##ming": 3994,
      "##ones": 3995,
      "election": 3996,
      "guaranteed": 3997,
      "vide": 3998,
      "location": 3999,
      "concern": 4000,
      "##action": 4001,
      "remo": 4002,
      "##house": 4003,
      "requirement": 4004,
      "affiliated": 4005,
      "swaps": 4006,
      "rely": 4007,
      "pac": 4008,
      "dise": 4009,
      "geor": 4010,
      "vers": 4011,
      "mineral": 4012,
      "##anes": 4013,
      "documents": 4014,
      "reti": 4015,
      "emission": 4016,
      "##vement": 4017,
      "prefer": 4018,
      "along": 4019,
      "earli": 4020,
      "##eco": 4021,
      "disp": 4022,
      "disru": 4023,
      "cyc": 4024,
      "haz": 4025,
      "1991": 4026,
      "sust": 4027,
      "capabilities": 4028,
      "permits": 4029,
      "physici": 4030,
      "extensive": 4031,
      "##iana": 4032,
      "gaming": 4033,
      "users": 4034,
      "training": 4035,
      "associates": 4036,
      "##emp": 4037,
      "functions": 4038,
      "transferred": 4039,
      "suit": 4040,
      "added": 4041,
      "positive": 4042,
      "thereafter": 4043,
      "utilize": 4044,
      "purchas": 4045,
      "educ": 4046,
      "ox": 4047,
      "##encing": 4048,
      "struct": 4049,
      "##yn": 4050,
      "opportunity": 4051,
      "millions": 4052,
      "extend": 4053,
      "consumers": 4054,
      "subsequently": 4055,
      "##issory": 4056,
      "participant": 4057,
      "tra": 4058,
      "weakness": 4059,
      "inn": 4060,
      "rein": 4061,
      "utilities": 4062,
      "larger": 4063,
      "offers": 4064,
      "promissory": 4065,
      "request": 4066,
      "driven": 4067,
      "exceeds": 4068,
      "remediation": 4069,
      "##ta": 4070,
      "expensed": 4071,
      "guidelines": 4072,
      "mean": 4073,
      "##van": 4074,
      "advisor": 4075,
      "##urer": 4076,
      "##endar": 4077,
      "calendar": 4078,
      "render": 4079,
      "considers": 4080,
      "##orn": 4081,
      "08": 4082,
      "tenant": 4083,
      "07": 4084,
      "discover": 4085,
      "medicare": 4086,
      "housing": 4087,
      "repayment": 4088,
      "mak": 4089,
      "delivered": 4090,
      "initiatives": 4091,
      "mut": 4092,
      "mining": 4093,
      "leasing": 4094,
      "##oph": 4095,
      "match": 4096,
      "online": 4097,
      "defer": 4098,
      "##utes": 4099,
      "expectations": 4100,
      "planning": 4101,
      "ranging": 4102,
      "##tically": 4103,
      "corresponding": 4104,
      "developments": 4105,
      "##lear": 4106,
      "advisory": 4107,
      "##ought": 4108,
      "sti": 4109,
      "asser": 4110,
      "reconcil": 4111,
      "hotel": 4112,
      "compos": 4113,
      "fhl": 4114,
      "certification": 4115,
      "sustain": 4116,
      "across": 4117,
      "publicly": 4118,
      "qualify": 4119,
      "attract": 4120,
      "vendors": 4121,
      "placement": 4122,
      "closed": 4123,
      "specifically": 4124,
      "##idge": 4125,
      "participate": 4126,
      "forfe": 4127,
      "##contr": 4128,
      "requiring": 4129,
      "recoverable": 4130,
      "mobile": 4131,
      "plants": 4132,
      "acceptance": 4133,
      "auditors": 4134,
      "inflation": 4135,
      "improved": 4136,
      "traditional": 4137,
      "susp": 4138,
      "release": 4139,
      "##ma": 4140,
      "influ": 4141,
      "exist": 4142,
      "reviews": 4143,
      "san": 4144,
      "##lated": 4145,
      "fraud": 4146,
      "dail": 4147,
      "##ars": 4148,
      "find": 4149,
      "category": 4150,
      "supplies": 4151,
      "street": 4152,
      "lender": 4153,
      "##icon": 4154,
      "daily": 4155,
      "summarized": 4156,
      "certificates": 4157,
      "study": 4158,
      "deter": 4159,
      "consumm": 4160,
      "600": 4161,
      "tier": 4162,
      "qualitative": 4163,
      "##adian": 4164,
      "advantage": 4165,
      "appear": 4166,
      "recurring": 4167,
      "ny": 4168,
      "calculation": 4169,
      "video": 4170,
      "revised": 4171,
      "securitiz": 4172,
      "half": 4173,
      "investig": 4174,
      "central": 4175,
      "seven": 4176,
      "telecommunications": 4177,
      "milest": 4178,
      "light": 4179,
      "country": 4180,
      "inability": 4181,
      "##ost": 4182,
      "##iber": 4183,
      "ratios": 4184,
      "monitoring": 4185,
      "employed": 4186,
      "seeking": 4187,
      "err": 4188,
      "dealer": 4189,
      "nuc": 4190,
      "approvals": 4191,
      "parts": 4192,
      "hedges": 4193,
      "doubtful": 4194,
      "maintains": 4195,
      "enacted": 4196,
      "serves": 4197,
      "electricity": 4198,
      "##urrence": 4199,
      "##ston": 4200,
      "enable": 4201,
      "401": 4202,
      "canadian": 4203,
      "mand": 4204,
      "##arks": 4205,
      "##ancy": 4206,
      "distributed": 4207,
      "functional": 4208,
      "plaintiffs": 4209,
      "acceptable": 4210,
      "affecting": 4211,
      "spl": 4212,
      "implemented": 4213,
      "mach": 4214,
      "engage": 4215,
      "whose": 4216,
      "underst": 4217,
      "bul": 4218,
      "##uck": 4219,
      "create": 4220,
      "reorganization": 4221,
      "##ets": 4222,
      "120": 4223,
      "interpretation": 4224,
      "assign": 4225,
      "quarters": 4226,
      "crude": 4227,
      "changed": 4228,
      "consultants": 4229,
      "dealers": 4230,
      "mexico": 4231,
      "##lies": 4232,
      "log": 4233,
      "pron": 4234,
      "##ledge": 4235,
      "star": 4236,
      "spending": 4237,
      "civ": 4238,
      "##tainment": 4239,
      "##vested": 4240,
      "scope": 4241,
      "improvement": 4242,
      "##more": 4243,
      "1990": 4244,
      "currencies": 4245,
      "decreases": 4246,
      "view": 4247,
      "pronoun": 4248,
      "virgin": 4249,
      "800": 4250,
      "update": 4251,
      "fcc": 4252,
      "later": 4253,
      "##pi": 4254,
      "intends": 4255,
      "formed": 4256,
      "earlier": 4257,
      "ratings": 4258,
      "defici": 4259,
      "warranty": 4260,
      "##cements": 4261,
      "device": 4262,
      "integration": 4263,
      "flex": 4264,
      "dilutive": 4265,
      "wash": 4266,
      "telephone": 4267,
      "hour": 4268,
      "produced": 4269,
      "##view": 4270,
      "settled": 4271,
      "focused": 4272,
      "examination": 4273,
      "##tle": 4274,
      "motion": 4275,
      "secretary": 4276,
      "defendants": 4277,
      "fhlb": 4278,
      "qualifying": 4279,
      "weather": 4280,
      "refund": 4281,
      "colum": 4282,
      "borrowers": 4283,
      "minor": 4284,
      "ferc": 4285,
      "supporting": 4286,
      "##der": 4287,
      "renewal": 4288,
      "##rs": 4289,
      "counsel": 4290,
      "john": 4291,
      "knowledge": 4292,
      "communic": 4293,
      "recomm": 4294,
      "quantit": 4295,
      "wind": 4296,
      "dism": 4297,
      "indicate": 4298,
      "technological": 4299,
      "periodically": 4300,
      "travel": 4301,
      "quantitative": 4302,
      "##ligh": 4303,
      "governing": 4304,
      "##audited": 4305,
      "unaudited": 4306,
      "conven": 4307,
      "secure": 4308,
      "rather": 4309,
      "forms": 4310,
      "##west": 4311,
      "petr": 4312,
      "involving": 4313,
      "##bert": 4314,
      "broadc": 4315,
      "what": 4316,
      "##unt": 4317,
      "pacific": 4318,
      "asp": 4319,
      "proved": 4320,
      "prime": 4321,
      "relatively": 4322,
      "execu": 4323,
      "replacement": 4324,
      "hazard": 4325,
      "practice": 4326,
      "copy": 4327,
      "progress": 4328,
      "nev": 4329,
      "##ously": 4330,
      "dur": 4331,
      "##ille": 4332,
      "##uit": 4333,
      "observable": 4334,
      "producing": 4335,
      "##ism": 4336,
      "eas": 4337,
      "resolution": 4338,
      "tests": 4339,
      "better": 4340,
      "nuclear": 4341,
      "##where": 4342,
      "##apan": 4343,
      "mass": 4344,
      "means": 4345,
      "##back": 4346,
      "##eding": 4347,
      "##tivity": 4348,
      "alleged": 4349,
      "interc": 4350,
      "exchang": 4351,
      "##iable": 4352,
      "establishing": 4353,
      "enhanc": 4354,
      "##inite": 4355,
      "oh": 4356,
      "epa": 4357,
      "ware": 4358,
      "enhance": 4359,
      "self": 4360,
      "sect": 4361,
      "history": 4362,
      "##ominated": 4363,
      "features": 4364,
      "cur": 4365,
      "relate": 4366,
      "changing": 4367,
      "nevada": 4368,
      "deterior": 4369,
      "##mark": 4370,
      "indef": 4371,
      "thousand": 4372,
      "exists": 4373,
      "japan": 4374,
      "marketable": 4375,
      "submitted": 4376,
      "##unch": 4377,
      "civil": 4378,
      "##with": 4379,
      "cancell": 4380,
      "##arch": 4381,
      "manufacturer": 4382,
      "quanti": 4383,
      "##ped": 4384,
      "georg": 4385,
      "indefinite": 4386,
      "133": 4387,
      "brands": 4388,
      "##ift": 4389,
      "definitive": 4390,
      "142": 4391,
      "ultimately": 4392,
      "sharing": 4393,
      "planned": 4394,
      "cho": 4395,
      "placed": 4396,
      "innov": 4397,
      "reliability": 4398,
      "reducing": 4399,
      "furthermore": 4400,
      "agents": 4401,
      "forecas": 4402,
      "##ont": 4403,
      "##portion": 4404,
      "canc": 4405,
      "penns": 4406,
      "steel": 4407,
      "clean": 4408,
      "##iary": 4409,
      "headqu": 4410,
      "thereof": 4411,
      "needed": 4412,
      "controlled": 4413,
      "approximate": 4414,
      "collect": 4415,
      "deficit": 4416,
      "disag": 4417,
      "spread": 4418,
      "##ler": 4419,
      "merchandise": 4420,
      "##ylvan": 4421,
      "techniqu": 4422,
      "thus": 4423,
      "subj": 4424,
      "pennsylvan": 4425,
      "reclassified": 4426,
      "##tification": 4427,
      "categories": 4428,
      "trademarks": 4429,
      "##idential": 4430,
      "pennsylvania": 4431,
      "##estern": 4432,
      "scholes": 4433,
      "conse": 4434,
      "cross": 4435,
      "seasonal": 4436,
      "restaurants": 4437,
      "assigned": 4438,
      "atl": 4439,
      "consequ": 4440,
      "supervision": 4441,
      "dismiss": 4442,
      "##ulf": 4443,
      "nonc": 4444,
      "enforcement": 4445,
      "##esee": 4446,
      "classification": 4447,
      "illino": 4448,
      "assure": 4449,
      "##ny": 4450,
      "else": 4451,
      "park": 4452,
      "commenced": 4453,
      "##gy": 4454,
      "##head": 4455,
      "##ero": 4456,
      "prospects": 4457,
      "royalties": 4458,
      "mutual": 4459,
      "fif": 4460,
      "servicer": 4461,
      "illinois": 4462,
      "##water": 4463,
      "combinations": 4464,
      "acquiring": 4465,
      "##ions": 4466,
      "pop": 4467,
      "eliminated": 4468,
      "##oper": 4469,
      "washington": 4470,
      "af": 4471,
      "lack": 4472,
      "holds": 4473,
      "discounts": 4474,
      "##iving": 4475,
      "125": 4476,
      "hazardous": 4477,
      "expires": 4478,
      "controlling": 4479,
      "##ri": 4480,
      "ethics": 4481,
      "safe": 4482,
      "predecess": 4483,
      "##duct": 4484,
      "noted": 4485,
      "georgia": 4486,
      "elsewhere": 4487,
      "indemnification": 4488,
      "capacities": 4489,
      "projections": 4490,
      "mac": 4491,
      "foresee": 4492,
      "few": 4493,
      "##log": 4494,
      "##me": 4495,
      "green": 4496,
      "buildings": 4497,
      "actu": 4498,
      "advisors": 4499,
      "##ville": 4500,
      "13a": 4501,
      "radio": 4502,
      "characteristics": 4503,
      "vis": 4504,
      "##ci": 4505,
      "receipt": 4506,
      "launch": 4507,
      "ohio": 4508,
      "##ibles": 4509,
      "##ifies": 4510,
      "##ilit": 4511,
      "##pra": 4512,
      "revers": 4513,
      "sil": 4514,
      "translation": 4515,
      "bid": 4516,
      "hier": 4517,
      "##wood": 4518,
      "hierarch": 4519,
      "models": 4520,
      "king": 4521,
      "reconciliation": 4522,
      "peop": 4523,
      "economy": 4524,
      "cd": 4525,
      "syn": 4526,
      "las": 4527,
      "vehicle": 4528,
      "mess": 4529,
      "bancorp": 4530,
      "lawsuits": 4531,
      "vehicles": 4532,
      "split": 4533,
      "##ai": 4534,
      "carol": 4535,
      "meaning": 4536,
      "purchasing": 4537,
      "virginia": 4538,
      "covering": 4539,
      "##itch": 4540,
      "##erman": 4541,
      "paying": 4542,
      "supplier": 4543,
      "hardware": 4544,
      "separately": 4545,
      "intangibles": 4546,
      "hierarchy": 4547,
      "east": 4548,
      "formerly": 4549,
      "treated": 4550,
      "##atell": 4551,
      "participating": 4552,
      "##let": 4553,
      "omitted": 4554,
      "spr": 4555,
      "impose": 4556,
      "##ports": 4557,
      "achieved": 4558,
      "dav": 4559,
      "transf": 4560,
      "##ompany": 4561,
      "label": 4562,
      "problems": 4563,
      "##illiam": 4564,
      "establishes": 4565,
      "##tis": 4566,
      "initially": 4567,
      "##ry": 4568,
      "##ient": 4569,
      "recognizes": 4570,
      "manufactured": 4571,
      "##ames": 4572,
      "fall": 4573,
      "appoin": 4574,
      "##eme": 4575,
      "prospective": 4576,
      "reputation": 4577,
      "foreseeable": 4578,
      "exposed": 4579,
      "satell": 4580,
      "austr": 4581,
      "programming": 4582,
      "##ersey": 4583,
      "##gl": 4584,
      "hear": 4585,
      "##argo": 4586,
      "amounted": 4587,
      "intercompany": 4588,
      "101": 4589,
      "entertainment": 4590,
      "confidential": 4591,
      "help": 4592,
      "emerging": 4593,
      "##inter": 4594,
      "color": 4595,
      "obligated": 4596,
      "restaurant": 4597,
      "william": 4598,
      "esp": 4599,
      "##onstr": 4600,
      "commercialization": 4601,
      "reform": 4602,
      "scho": 4603,
      "##ays": 4604,
      "denominated": 4605,
      "objective": 4606,
      "asia": 4607,
      "limitation": 4608,
      "##ios": 4609,
      "involves": 4610,
      "utilization": 4611,
      "perman": 4612,
      "lou": 4613,
      "rendered": 4614,
      "permanent": 4615,
      "appeal": 4616,
      "operators": 4617,
      "caption": 4618,
      "shop": 4619,
      "tenants": 4620,
      "jersey": 4621,
      "##irm": 4622,
      "stations": 4623,
      "foreclos": 4624,
      "##gen": 4625,
      "demonstr": 4626,
      "##onsolid": 4627,
      "cancer": 4628,
      "redeemable": 4629,
      "once": 4630,
      "##eff": 4631,
      "##the": 4632,
      "carriers": 4633,
      "automa": 4634,
      "misstatement": 4635,
      "ceo": 4636,
      "144": 4637,
      "157": 4638,
      "conflic": 4639,
      "factor": 4640,
      "##edd": 4641,
      "diagn": 4642,
      "eight": 4643,
      "unders": 4644,
      "ww": 4645,
      "##fo": 4646,
      "whereby": 4647,
      "hydr": 4648,
      "elements": 4649,
      "pronouncements": 4650,
      "executives": 4651,
      "##tise": 4652,
      "declines": 4653,
      "emissions": 4654,
      "expertise": 4655,
      "sarb": 4656,
      "occurs": 4657,
      "##ca": 4658,
      "length": 4659,
      "##oleum": 4660,
      "political": 4661,
      "efficient": 4662,
      "sarbanes": 4663,
      "##ailing": 4664,
      "oxley": 4665,
      "determines": 4666,
      "drugs": 4667,
      "##acting": 4668,
      "appointed": 4669,
      "respond": 4670,
      "##erce": 4671,
      "##echan": 4672,
      "reverse": 4673,
      "##na": 4674,
      "##ama": 4675,
      "expanded": 4676,
      "managers": 4677,
      "##draw": 4678,
      "old": 4679,
      "disagre": 4680,
      "##izon": 4681,
      "mitig": 4682,
      "artic": 4683,
      "clar": 4684,
      "allowed": 4685,
      "gl": 4686,
      "prepayment": 4687,
      "relates": 4688,
      "groups": 4689,
      "mot": 4690,
      "lawsuit": 4691,
      "predecessor": 4692,
      "##ounds": 4693,
      "withdraw": 4694,
      "necessarily": 4695,
      "diagnos": 4696,
      "frank": 4697,
      "emb": 4698,
      "put": 4699,
      "##cl": 4700,
      "house": 4701,
      "frequent": 4702,
      "pursue": 4703,
      "arise": 4704,
      "##ered": 4705,
      "upgr": 4706,
      "smaller": 4707,
      "##ado": 4708,
      "station": 4709,
      "louis": 4710,
      "imposed": 4711,
      "##ota": 4712,
      "appra": 4713,
      "##vest": 4714,
      "1989": 4715,
      "budg": 4716,
      "##usts": 4717,
      "tang": 4718,
      "rail": 4719,
      "makes": 4720,
      "unfavor": 4721,
      "##pm": 4722,
      "##ford": 4723,
      "##lements": 4724,
      "submission": 4725,
      "channels": 4726,
      "mechan": 4727,
      "undersigned": 4728,
      "physical": 4729,
      "becomes": 4730,
      "www": 4731,
      "rich": 4732,
      "assuming": 4733,
      "##tingu": 4734,
      "austral": 4735,
      "assessments": 4736,
      "disease": 4737,
      "sun": 4738,
      "prepaid": 4739,
      "membership": 4740,
      "awarded": 4741,
      "grap": 4742,
      "formul": 4743,
      "counterparties": 4744,
      "insp": 4745,
      "petroleum": 4746,
      "every": 4747,
      "investigation": 4748,
      "expressed": 4749,
      "700": 4750,
      "techniques": 4751,
      "committed": 4752,
      "salaries": 4753,
      "##eting": 4754,
      "tables": 4755,
      "thereby": 4756,
      "bill": 4757,
      "realize": 4758,
      "occurrence": 4759,
      "communities": 4760,
      "certified": 4761,
      "independ": 4762,
      "apart": 4763,
      "executed": 4764,
      "##eter": 4765,
      "homes": 4766,
      "excluded": 4767,
      "##olling": 4768,
      "##iti": 4769,
      "goals": 4770,
      "##gress": 4771,
      "##ob": 4772,
      "filings": 4773,
      "independence": 4774,
      "tow": 4775,
      "indirectly": 4776,
      "##place": 4777,
      "lp": 4778,
      "efficiency": 4779,
      "automotive": 4780,
      "reportable": 4781,
      "reserved": 4782,
      "jurisdiction": 4783,
      "track": 4784,
      "repaid": 4785,
      "##asons": 4786,
      "assessed": 4787,
      "user": 4788,
      "robert": 4789,
      "distribute": 4790,
      "ren": 4791,
      "commerce": 4792,
      "109": 4793,
      "increment": 4794,
      "interru": 4795,
      "receives": 4796,
      "infringement": 4797,
      "##hood": 4798,
      "counterparty": 4799,
      "##apital": 4800,
      "handling": 4801,
      "hotels": 4802,
      "concentration": 4803,
      "mine": 4804,
      "overview": 4805,
      "micr": 4806,
      "##ounted": 4807,
      "therapeu": 4808,
      "##light": 4809,
      "undisc": 4810,
      "lesser": 4811,
      "sells": 4812,
      "trademark": 4813,
      "late": 4814,
      "difficulties": 4815,
      "minority": 4816,
      "750": 4817,
      "cooper": 4818,
      "appreciation": 4819,
      "proportion": 4820,
      "earning": 4821,
      "floating": 4822,
      "prc": 4823,
      "examining": 4824,
      "annu": 4825,
      "slow": 4826,
      "##bc": 4827,
      "condensed": 4828,
      "proceeding": 4829,
      "education": 4830,
      "recovered": 4831,
      "week": 4832,
      "definition": 4833,
      "join": 4834,
      "still": 4835,
      "##ancing": 4836,
      "created": 4837,
      "accelerated": 4838,
      "consequences": 4839,
      "nu": 4840,
      "surr": 4841,
      "1986": 4842,
      "##fill": 4843,
      "relief": 4844,
      "tangible": 4845,
      "##opt": 4846,
      "carolina": 4847,
      "volunt": 4848,
      "valid": 4849,
      "duties": 4850,
      "farm": 4851,
      "trend": 4852,
      "##arial": 4853,
      "discl": 4854,
      "semicon": 4855,
      "war": 4856,
      "##elf": 4857,
      "disagreements": 4858,
      "##oma": 4859,
      "hedged": 4860,
      "rs": 4861,
      "entr": 4862,
      "portions": 4863,
      "semiconduct": 4864,
      "largely": 4865,
      "give": 4866,
      "##uses": 4867,
      "141": 4868,
      "##onsolidated": 4869,
      "chec": 4870,
      "backlog": 4871,
      "death": 4872,
      "identifiable": 4873,
      "analyz": 4874,
      "eit": 4875,
      "##uch": 4876,
      "##ogen": 4877,
      "collaboration": 4878,
      "delin": 4879,
      "utilizing": 4880,
      "casino": 4881,
      "serving": 4882,
      "camp": 4883,
      "preceding": 4884,
      "##down": 4885,
      "unith": 4886,
      "scale": 4887,
      "sit": 4888,
      "unithold": 4889,
      "resource": 4890,
      "har": 4891,
      "900": 4892,
      "enhanced": 4893,
      "occupancy": 4894,
      "unfavorable": 4895,
      "presently": 4896,
      "mun": 4897,
      "river": 4898,
      "##state": 4899,
      "lose": 4900,
      "##cs": 4901,
      "collected": 4902,
      "restrict": 4903,
      "signatures": 4904,
      "##bia": 4905,
      "incremental": 4906,
      "defense": 4907,
      "##ott": 4908,
      "mature": 4909,
      "capitalization": 4910,
      "circuit": 4911,
      "usa": 4912,
      "grad": 4913,
      "##crow": 4914,
      "vendor": 4915,
      "actuarial": 4916,
      "##lease": 4917,
      "sensitive": 4918,
      "declined": 4919,
      "##urers": 4920,
      "firms": 4921,
      "##ba": 4922,
      "escrow": 4923,
      "mill": 4924,
      "enterprises": 4925,
      "western": 4926,
      "transfers": 4927,
      "nine": 4928,
      "chain": 4929,
      "solely": 4930,
      "##bank": 4931,
      "packaging": 4932,
      "##ask": 4933,
      "##dom": 4934,
      "exit": 4935,
      "##author": 4936,
      "grade": 4937,
      "applies": 4938,
      "institutional": 4939,
      "mortgages": 4940,
      "comparison": 4941,
      "entergy": 4942,
      "consequent": 4943,
      "optim": 4944,
      "undiscounted": 4945,
      "room": 4946,
      "billed": 4947,
      "##qual": 4948,
      "therein": 4949,
      "installation": 4950,
      "targeted": 4951,
      "adopt": 4952,
      "contam": 4953,
      "pertain": 4954,
      "commencing": 4955,
      "##otes": 4956,
      "deprec": 4957,
      "vess": 4958,
      "worth": 4959,
      "1988": 4960,
      "remains": 4961,
      "eitf": 4962,
      "headquarters": 4963,
      "satellite": 4964,
      "aspects": 4965,
      "rat": 4966,
      "##oming": 4967,
      "metr": 4968,
      "dir": 4969,
      "targets": 4970,
      "workers": 4971,
      "joined": 4972,
      "growing": 4973,
      "repurchased": 4974,
      "##force": 4975,
      "arm": 4976,
      "leasehold": 4977,
      "violations": 4978,
      "list": 4979,
      "beneficially": 4980,
      "##igg": 4981,
      "foregoing": 4982,
      "auditing": 4983,
      "reasons": 4984,
      "##face": 4985,
      "draw": 4986,
      "shipping": 4987,
      "##ental": 4988,
      "subscription": 4989,
      "consequently": 4990,
      "quantities": 4991,
      "##tinguish": 4992,
      "retention": 4993,
      "assumption": 4994,
      "##mc": 4995,
      "exceeded": 4996,
      "effort": 4997,
      "origin": 4998,
      "released": 4999,
      "run": 5000,
      "scien": 5001,
      "##obs": 5002,
      "collateralized": 5003,
      "miss": 5004,
      "shows": 5005,
      "monetary": 5006,
      "##orne": 5007,
      "whom": 5008,
      "et": 5009,
      "deploy": 5010,
      "superior": 5011,
      "simp": 5012,
      "regions": 5013,
      "brokerage": 5014,
      "##unto": 5015,
      "nav": 5016,
      "atten": 5017,
      "dom": 5018,
      "##authorized": 5019,
      "james": 5020,
      "speed": 5021,
      "##quency": 5022,
      "expired": 5023,
      "kingdom": 5024,
      "duke": 5025,
      "bloc": 5026,
      "##ana": 5027,
      "newly": 5028,
      "names": 5029,
      "understanding": 5030,
      "mary": 5031,
      "jr": 5032,
      "assemb": 5033,
      "classes": 5034,
      "called": 5035,
      "sponsoring": 5036,
      "enforce": 5037,
      "people": 5038,
      "accurately": 5039,
      "solution": 5040,
      "unauthorized": 5041,
      "ground": 5042,
      "realiz": 5043,
      "displ": 5044,
      "intent": 5045,
      "##uting": 5046,
      "duration": 5047,
      "dispositions": 5048,
      "prin": 5049,
      "situ": 5050,
      "unconsolidated": 5051,
      "modification": 5052,
      "contribute": 5053,
      "thereunto": 5054,
      "warehouse": 5055,
      "trusts": 5056,
      "physicians": 5057,
      "start": 5058,
      "##ael": 5059,
      "priority": 5060,
      "payroll": 5061,
      "taking": 5062,
      "203": 5063,
      "semiconductor": 5064,
      "##icip": 5065,
      "facilit": 5066,
      "tools": 5067,
      "evaluates": 5068,
      "regulators": 5069,
      "applying": 5070,
      "municip": 5071,
      "bur": 5072,
      "##sc": 5073,
      "hospitals": 5074,
      "350": 5075,
      "plas": 5076,
      "##plus": 5077,
      "thres": 5078,
      "blo": 5079,
      "exposures": 5080,
      "fid": 5081,
      "barg": 5082,
      "very": 5083,
      "detailed": 5084,
      "sector": 5085,
      "threshold": 5086,
      "attention": 5087,
      "##star": 5088,
      "surg": 5089,
      "crim": 5090,
      "pressure": 5091,
      "origination": 5092,
      "##adway": 5093,
      "redeemed": 5094,
      "fa": 5095,
      "rig": 5096,
      "##tine": 5097,
      "112": 5098,
      "##gas": 5099,
      "overhead": 5100,
      "symb": 5101,
      "1987": 5102,
      "gulf": 5103,
      "annivers": 5104,
      "customary": 5105,
      "municipal": 5106,
      "incentives": 5107,
      "joining": 5108,
      "marketplace": 5109,
      "reflecting": 5110,
      "nom": 5111,
      "relation": 5112,
      "rou": 5113,
      "##law": 5114,
      "moreover": 5115,
      "revision": 5116,
      "##ened": 5117,
      "borrowed": 5118,
      "retailers": 5119,
      "##adequ": 5120,
      "inadequ": 5121,
      "##ired": 5122,
      "securitization": 5123,
      "receipts": 5124,
      "versus": 5125,
      "acts": 5126,
      "operator": 5127,
      "##ives": 5128,
      "realty": 5129,
      "marketed": 5130,
      "##ii": 5131,
      "lien": 5132,
      "001": 5133,
      "##qualified": 5134,
      "downt": 5135,
      "pan": 5136,
      "##ening": 5137,
      "##lihood": 5138,
      "recommend": 5139,
      "fleet": 5140,
      "residual": 5141,
      "originally": 5142,
      "secondary": 5143,
      "david": 5144,
      "drive": 5145,
      "fluctuate": 5146,
      "likelihood": 5147,
      "##ream": 5148,
      "phil": 5149,
      "reached": 5150,
      "##tt": 5151,
      "michael": 5152,
      "##field": 5153,
      "medicaid": 5154,
      "attorn": 5155,
      "casual": 5156,
      "irs": 5157,
      "my": 5158,
      "terror": 5159,
      "distributor": 5160,
      "attorney": 5161,
      "discovery": 5162,
      "rock": 5163,
      "replace": 5164,
      "fab": 5165,
      "listing": 5166,
      "adequacy": 5167,
      "hereby": 5168,
      "treadway": 5169,
      "proc": 5170,
      "oem": 5171,
      "remained": 5172,
      "contem": 5173,
      "deductible": 5174,
      "violation": 5175,
      "treasurer": 5176,
      "exempt": 5177,
      "feature": 5178,
      "pharmaceuticals": 5179,
      "articles": 5180,
      "##af": 5181,
      "yields": 5182,
      "never": 5183,
      "candidate": 5184,
      "suffer": 5185,
      "exception": 5186,
      "liable": 5187,
      "therapy": 5188,
      "negotiated": 5189,
      "##lusion": 5190,
      "german": 5191,
      "prevailing": 5192,
      "##ourse": 5193,
      "broadcast": 5194,
      "2020": 5195,
      "chap": 5196,
      "select": 5197,
      "##lim": 5198,
      "milestone": 5199,
      "achievement": 5200,
      "identical": 5201,
      "acres": 5202,
      "reb": 5203,
      "##etts": 5204,
      "northern": 5205,
      "fargo": 5206,
      "profitable": 5207,
      "methodology": 5208,
      "1a": 5209,
      "estimating": 5210,
      "regularly": 5211,
      "noncontr": 5212,
      "peti": 5213,
      "##amortiz": 5214,
      "presence": 5215,
      "convert": 5216,
      "##ake": 5217,
      "impairments": 5218,
      "notional": 5219,
      "noncontrolling": 5220,
      "##charg": 5221,
      "instances": 5222,
      "##rel": 5223,
      "apprais": 5224,
      "mainly": 5225,
      "individually": 5226,
      "symbol": 5227,
      "stream": 5228,
      "bad": 5229,
      "zero": 5230,
      "##achus": 5231,
      "dat": 5232,
      "massachus": 5233,
      "representatives": 5234,
      "your": 5235,
      "massachusetts": 5236,
      "ess": 5237,
      "pattern": 5238,
      "##pc": 5239,
      "##lementing": 5240,
      "agric": 5241,
      "installments": 5242,
      "execution": 5243,
      "unamortiz": 5244,
      "accountant": 5245,
      "##edded": 5246,
      "legisl": 5247,
      "successor": 5248,
      "disposed": 5249,
      "indicative": 5250,
      "unamortized": 5251,
      "virt": 5252,
      "traff": 5253,
      "sab": 5254,
      "initiated": 5255,
      "play": 5256,
      "mitigate": 5257,
      "commercially": 5258,
      "const": 5259,
      "exceptions": 5260,
      "adequately": 5261,
      "electronics": 5262,
      "influence": 5263,
      "owed": 5264,
      "##oid": 5265,
      "attractive": 5266,
      "recoverability": 5267,
      "quick": 5268,
      "surplus": 5269,
      "##perform": 5270,
      "traffic": 5271,
      "hor": 5272,
      "inadequate": 5273,
      "pledg": 5274,
      "facts": 5275,
      "il": 5276,
      "agricult": 5277,
      "##observable": 5278,
      "##ony": 5279,
      "unobservable": 5280,
      "identification": 5281,
      "##ological": 5282,
      "apb": 5283,
      "pages": 5284,
      "embedded": 5285,
      "receiving": 5286,
      "##ique": 5287,
      "gather": 5288,
      "school": 5289,
      "implementing": 5290,
      "sustained": 5291,
      "fines": 5292,
      "gran": 5293,
      "##ox": 5294,
      "discharg": 5295,
      "satisfaction": 5296,
      "ur": 5297,
      "resell": 5298,
      "maryland": 5299,
      "##ansas": 5300,
      "usage": 5301,
      "##ern": 5302,
      "contractors": 5303,
      "unvested": 5304,
      "remainder": 5305,
      "otc": 5306,
      "penny": 5307,
      "##nes": 5308,
      "dilution": 5309,
      "om": 5310,
      "##ourcing": 5311,
      "##lands": 5312,
      "mag": 5313,
      "processed": 5314,
      "employer": 5315,
      "unitholders": 5316,
      "threat": 5317,
      "considering": 5318,
      "md": 5319,
      "extra": 5320,
      "##iated": 5321,
      "bases": 5322,
      "flexibility": 5323,
      "##ha": 5324,
      "morgan": 5325,
      "floor": 5326,
      "laboratory": 5327,
      "ipo": 5328,
      "approximates": 5329,
      "professionals": 5330,
      "published": 5331,
      "anticipates": 5332,
      "##ways": 5333,
      "dod": 5334,
      "realization": 5335,
      "defaul": 5336,
      "perce": 5337,
      "around": 5338,
      "reinvest": 5339,
      "##anta": 5340,
      "export": 5341,
      "unex": 5342,
      "diversified": 5343,
      "organized": 5344,
      "mail": 5345,
      "##omas": 5346,
      "##ete": 5347,
      "commercialize": 5348,
      "metal": 5349,
      "anniversary": 5350,
      "##urrent": 5351,
      "criminal": 5352,
      "accruals": 5353,
      "subscrib": 5354,
      "tender": 5355,
      "refinancing": 5356,
      "messrs": 5357,
      "unique": 5358,
      "introduced": 5359,
      "15d": 5360,
      "##dle": 5361,
      "diss": 5362,
      "purchaser": 5363,
      "territ": 5364,
      "soc": 5365,
      "retrosp": 5366,
      "colorado": 5367,
      "removal": 5368,
      "nyse": 5369,
      "110": 5370,
      "##ug": 5371,
      "cs": 5372,
      "scientific": 5373,
      "seeks": 5374,
      "expensive": 5375,
      "louisiana": 5376,
      "##be": 5377,
      "actively": 5378,
      "rul": 5379,
      "issuing": 5380,
      "cease": 5381,
      "costly": 5382,
      "substances": 5383,
      "spect": 5384,
      "pn": 5385,
      "mem": 5386,
      "amer": 5387,
      "constitute": 5388,
      "cancel": 5389,
      "purchasers": 5390,
      "furniture": 5391,
      "##lin": 5392,
      "##uty": 5393,
      "arch": 5394,
      "##stone": 5395,
      "##ett": 5396,
      "cells": 5397,
      "##urb": 5398,
      "unres": 5399,
      "fiber": 5400,
      "attest": 5401,
      "##tib": 5402,
      "challenges": 5403,
      "repurchases": 5404,
      "extinguish": 5405,
      "##ider": 5406,
      "##oung": 5407,
      "excludes": 5408,
      "issuable": 5409,
      "valley": 5410,
      "##ibilities": 5411,
      "frequently": 5412,
      "coup": 5413,
      "sections": 5414,
      "attempt": 5415,
      "highest": 5416,
      "weaknesses": 5417,
      "##itors": 5418,
      "poll": 5419,
      "cycle": 5420,
      "mov": 5421,
      "guarantor": 5422,
      "mississ": 5423,
      "downturn": 5424,
      "suitable": 5425,
      "rise": 5426,
      "indiana": 5427,
      "##ead": 5428,
      "shor": 5429,
      "nomin": 5430,
      "mal": 5431,
      "immediate": 5432,
      "##yc": 5433,
      "##stream": 5434,
      "concentrations": 5435,
      "##ik": 5436,
      "aware": 5437,
      "uncoll": 5438,
      "closure": 5439,
      "issuances": 5440,
      "introduction": 5441,
      "##ration": 5442,
      "115": 5443,
      "superv": 5444,
      "##ported": 5445,
      "160": 5446,
      "##atch": 5447,
      "errors": 5448,
      "##rew": 5449,
      "deficiencies": 5450,
      "columbia": 5451,
      "130": 5452,
      "appar": 5453,
      "entering": 5454,
      "led": 5455,
      "mississip": 5456,
      "computation": 5457,
      "australia": 5458,
      "##icated": 5459,
      "##ived": 5460,
      "via": 5461,
      "bio": 5462,
      "additions": 5463,
      "##hore": 5464,
      "1933": 5465,
      "##ago": 5466,
      "foreclosure": 5467,
      "brought": 5468,
      "details": 5469,
      "young": 5470,
      "##enn": 5471,
      "pow": 5472,
      "road": 5473,
      "billing": 5474,
      "heav": 5475,
      "7a": 5476,
      "separation": 5477,
      "afford": 5478,
      "whenever": 5479,
      "deductions": 5480,
      "blood": 5481,
      "recru": 5482,
      "regardless": 5483,
      "mississippi": 5484,
      "finished": 5485,
      "submit": 5486,
      "budget": 5487,
      "approve": 5488,
      "volatile": 5489,
      "196": 5490,
      "barr": 5491,
      "135": 5492,
      "disclose": 5493,
      "recourse": 5494,
      "trigg": 5495,
      "motor": 5496,
      "settlements": 5497,
      "guarantors": 5498,
      "##has": 5499,
      "realizable": 5500,
      "contempl": 5501,
      "offsetting": 5502,
      "ep": 5503,
      "sensi": 5504,
      "premises": 5505,
      "responsibilities": 5506,
      "##ulg": 5507,
      "##aking": 5508,
      "consultant": 5509,
      "club": 5510,
      "##ience": 5511,
      "implied": 5512,
      "increasingly": 5513,
      "ang": 5514,
      "concerns": 5515,
      "fulfill": 5516,
      "portfolios": 5517,
      "discretionary": 5518,
      "moun": 5519,
      "authorization": 5520,
      "rapidly": 5521,
      "element": 5522,
      "##ready": 5523,
      "seller": 5524,
      "wal": 5525,
      "kee": 5526,
      "chapter": 5527,
      "parag": 5528,
      "wood": 5529,
      "interm": 5530,
      "##entioned": 5531,
      "substit": 5532,
      "depository": 5533,
      "##itation": 5534,
      "already": 5535,
      "statutes": 5536,
      "controller": 5537,
      "automatically": 5538,
      "promulg": 5539,
      "severe": 5540,
      "interpretations": 5541,
      "matching": 5542,
      "##antic": 5543,
      "##ares": 5544,
      "offshore": 5545,
      "suite": 5546,
      "brokers": 5547,
      "braz": 5548,
      "##ein": 5549,
      "##ectible": 5550,
      "competing": 5551,
      "voluntary": 5552,
      "sponsored": 5553,
      "enroll": 5554,
      "varying": 5555,
      "pep": 5556,
      "carrier": 5557,
      "conce": 5558,
      "committees": 5559,
      "valuations": 5560,
      "expanding": 5561,
      "##igan": 5562,
      "pooling": 5563,
      "##under": 5564,
      "much": 5565,
      "junior": 5566,
      "repairs": 5567,
      "thomas": 5568,
      "requested": 5569,
      "##fc": 5570,
      "formation": 5571,
      "stop": 5572,
      "fer": 5573,
      "prelimin": 5574,
      "casualty": 5575,
      "avoid": 5576,
      "communication": 5577,
      "##ground": 5578,
      "auto": 5579,
      "eliminate": 5580,
      "modifications": 5581,
      "##tail": 5582,
      "emphas": 5583,
      "link": 5584,
      "essential": 5585,
      "recoveries": 5586,
      "##cp": 5587,
      "achieving": 5588,
      "determin": 5589,
      "lit": 5590,
      "ppl": 5591,
      "don": 5592,
      "bring": 5593,
      "eps": 5594,
      "interstate": 5595,
      "readily": 5596,
      "gene": 5597,
      "detect": 5598,
      "herewith": 5599,
      "cm": 5600,
      "mus": 5601,
      "attestation": 5602,
      "hours": 5603,
      "##vey": 5604,
      "bylaw": 5605,
      "arbit": 5606,
      "forecasted": 5607,
      "##och": 5608,
      "promotional": 5609,
      "##att": 5610,
      "retired": 5611,
      "194": 5612,
      "clearing": 5613,
      "ing": 5614,
      "##insic": 5615,
      "preferences": 5616,
      "bulle": 5617,
      "coso": 5618,
      "##si": 5619,
      "assistance": 5620,
      "furnished": 5621,
      "intrinsic": 5622,
      "annuity": 5623,
      "pledged": 5624,
      "misstatements": 5625,
      "containing": 5626,
      "bulletin": 5627,
      "alliance": 5628,
      "##raph": 5629,
      "assignment": 5630,
      "euro": 5631,
      "prescribed": 5632,
      "##linical": 5633,
      "solar": 5634,
      "injury": 5635,
      "composition": 5636,
      "minimize": 5637,
      "liens": 5638,
      "##esh": 5639,
      "attemp": 5640,
      "##erson": 5641,
      "##istic": 5642,
      "smith": 5643,
      "collective": 5644,
      "expiring": 5645,
      "bylaws": 5646,
      "cam": 5647,
      "sn": 5648,
      "unrelated": 5649,
      "guaranty": 5650,
      "asb": 5651,
      "selection": 5652,
      "shipments": 5653,
      "subscribers": 5654,
      "block": 5655,
      "sensitivity": 5656,
      "##lif": 5657,
      "conflicts": 5658,
      "graph": 5659,
      "chr": 5660,
      "##vent": 5661,
      "##anties": 5662,
      "disruption": 5663,
      "micro": 5664,
      "tm": 5665,
      "bay": 5666,
      "##ave": 5667,
      "180": 5668,
      "petition": 5669,
      "financed": 5670,
      "chemicals": 5671,
      "edison": 5672,
      "extraord": 5673,
      "enab": 5674,
      "##ially": 5675,
      "similarly": 5676,
      "##ades": 5677,
      "chic": 5678,
      "load": 5679,
      "##ann": 5680,
      "instead": 5681,
      "boston": 5682,
      "dividing": 5683,
      "physician": 5684,
      "rated": 5685,
      "lif": 5686,
      "enables": 5687,
      "disruptions": 5688,
      "##atr": 5689,
      "##lot": 5690,
      "extraordinary": 5691,
      "##eas": 5692,
      "sg": 5693,
      "exchanges": 5694,
      "undert": 5695,
      "execute": 5696,
      "commodities": 5697,
      "shipment": 5698,
      "middle": 5699,
      "impacts": 5700,
      "marine": 5701,
      "switch": 5702,
      "platforms": 5703,
      "107": 5704,
      "disability": 5705,
      "win": 5706,
      "effic": 5707,
      "utilizes": 5708,
      "freight": 5709,
      "instr": 5710,
      "##den": 5711,
      "privacy": 5712,
      "internally": 5713,
      "fal": 5714,
      "##band": 5715,
      "cp": 5716,
      "alab": 5717,
      "poly": 5718,
      "opening": 5719,
      "search": 5720,
      "prop": 5721,
      "121": 5722,
      "alabama": 5723,
      "##andon": 5724,
      "predic": 5725,
      "##wor": 5726,
      "carb": 5727,
      "##kn": 5728,
      "paragraph": 5729,
      "mandatory": 5730,
      "##sour": 5731,
      "michigan": 5732,
      "##urement": 5733,
      "##acks": 5734,
      "possibility": 5735,
      "mergers": 5736,
      "lin": 5737,
      "voice": 5738,
      "##verse": 5739,
      "##ald": 5740,
      "creditors": 5741,
      "preliminary": 5742,
      "##opol": 5743,
      "prud": 5744,
      "##use": 5745,
      "pipelines": 5746,
      "determinable": 5747,
      "aer": 5748,
      "fsp": 5749,
      "##aterial": 5750,
      "##atter": 5751,
      "abandon": 5752,
      "bel": 5753,
      "bears": 5754,
      "choose": 5755,
      "meetings": 5756,
      "140": 5757,
      "rata": 5758,
      "contamination": 5759,
      "miles": 5760,
      "unused": 5761,
      "lever": 5762,
      "originated": 5763,
      "biot": 5764,
      "population": 5765,
      "##ev": 5766,
      "privately": 5767,
      "tv": 5768,
      "attach": 5769,
      "renewable": 5770,
      "##ash": 5771,
      "computing": 5772,
      "complement": 5773,
      "##ilt": 5774,
      "chicago": 5775,
      "##fs": 5776,
      "merc": 5777,
      "wm": 5778,
      "prevention": 5779,
      "metals": 5780,
      "detection": 5781,
      "efficacy": 5782,
      "fire": 5783,
      "satisfied": 5784,
      "leaders": 5785,
      "##anol": 5786,
      "pays": 5787,
      "preclinical": 5788,
      "role": 5789,
      "##itable": 5790,
      "mg": 5791,
      "##olved": 5792,
      "measuring": 5793,
      "error": 5794,
      "legislative": 5795,
      "automobile": 5796,
      "signature": 5797,
      "reliance": 5798,
      "ratably": 5799,
      "congress": 5800,
      "incident": 5801,
      "corporations": 5802,
      "producers": 5803,
      "auction": 5804,
      "appeals": 5805,
      "shopping": 5806,
      "neither": 5807,
      "##hous": 5808,
      "gs": 5809,
      "construc": 5810,
      "integrate": 5811,
      "datab": 5812,
      "goal": 5813,
      "fit": 5814,
      "warranties": 5815,
      "##point": 5816,
      "securing": 5817,
      "chase": 5818,
      "synd": 5819,
      "##aa": 5820,
      "promulgated": 5821,
      "spent": 5822,
      "gathering": 5823,
      "mol": 5824,
      "##bers": 5825,
      "tested": 5826,
      "catal": 5827,
      "prohibited": 5828,
      "desp": 5829,
      "promotion": 5830,
      "##estit": 5831,
      "entry": 5832,
      "institute": 5833,
      "covenant": 5834,
      "giving": 5835,
      "credited": 5836,
      "prompt": 5837,
      "##ariff": 5838,
      "wisc": 5839,
      "spectr": 5840,
      "conducting": 5841,
      "##onsin": 5842,
      "social": 5843,
      "feed": 5844,
      "##itary": 5845,
      "despite": 5846,
      "geograph": 5847,
      "divestit": 5848,
      "wil": 5849,
      "9a": 5850,
      "waiver": 5851,
      "##ew": 5852,
      "weeks": 5853,
      "##berg": 5854,
      "##ds": 5855,
      "unan": 5856,
      "tariff": 5857,
      "wisconsin": 5858,
      "bonuses": 5859,
      "attorne": 5860,
      "attorneys": 5861,
      "formula": 5862,
      "fiduc": 5863,
      "##airs": 5864,
      "dist": 5865,
      "rsus": 5866,
      "insurers": 5867,
      "128": 5868,
      "alli": 5869,
      "film": 5870,
      "159": 5871,
      "medium": 5872,
      "assured": 5873,
      "extinguishment": 5874,
      "taxation": 5875,
      "131": 5876,
      "quot": 5877,
      "routine": 5878,
      "branded": 5879,
      "ineff": 5880,
      "ec": 5881,
      "106": 5882,
      "##affili": 5883,
      "beneficiary": 5884,
      "merchant": 5885,
      "workforce": 5886,
      "depreciated": 5887,
      "recording": 5888,
      "manufactures": 5889,
      "nonperform": 5890,
      "richard": 5891,
      "outp": 5892,
      "gp": 5893,
      "delayed": 5894,
      "removed": 5895,
      "vie": 5896,
      "usually": 5897,
      "nation": 5898,
      "reloc": 5899,
      "111": 5900,
      "replaced": 5901,
      "barrel": 5902,
      "##lines": 5903,
      "renewed": 5904,
      "subjective": 5905,
      "withhold": 5906,
      "intention": 5907,
      "assur": 5908,
      "foods": 5909,
      "facilitate": 5910,
      "##estos": 5911,
      "sponsors": 5912,
      "aven": 5913,
      "translated": 5914,
      "difficulty": 5915,
      "raised": 5916,
      "##isite": 5917,
      "105": 5918,
      "##pe": 5919,
      "improving": 5920,
      "prospect": 5921,
      "asbestos": 5922,
      "slight": 5923,
      "closely": 5924,
      "mw": 5925,
      "electrical": 5926,
      "specialized": 5927,
      "immun": 5928,
      "consummation": 5929,
      "reliable": 5930,
      "pain": 5931,
      "dodd": 5932,
      "immaterial": 5933,
      "samp": 5934,
      "principle": 5935,
      "##affiliated": 5936,
      "input": 5937,
      "123r": 5938,
      "conserv": 5939,
      "reinvestment": 5940,
      "##emptions": 5941,
      "##enty": 5942,
      "divided": 5943,
      "deduction": 5944,
      "##bi": 5945,
      "allocations": 5946,
      "investigations": 5947,
      "dim": 5948,
      "pressures": 5949,
      "preference": 5950,
      "820": 5951,
      "intense": 5952,
      "administered": 5953,
      "pal": 5954,
      "codification": 5955,
      "secre": 5956,
      "roll": 5957,
      "display": 5958,
      "ok": 5959,
      "##road": 5960,
      "milestones": 5961,
      "lock": 5962,
      "##tify": 5963,
      "feas": 5964,
      "twenty": 5965,
      "##ecutive": 5966,
      "anim": 5967,
      "defaults": 5968,
      "settle": 5969,
      "collections": 5970,
      "##off": 5971,
      "flu": 5972,
      "downs": 5973,
      "##ney": 5974,
      "uncollectible": 5975,
      "encour": 5976,
      "frequency": 5977,
      "restrictive": 5978,
      "military": 5979,
      "germany": 5980,
      "sports": 5981,
      "prohibit": 5982,
      "opened": 5983,
      "diagnostic": 5984,
      "375": 5985,
      "consecutive": 5986,
      "shared": 5987,
      "ib": 5988,
      "compensatory": 5989,
      "deteriorate": 5990,
      "eastern": 5991,
      "harb": 5992,
      "continuous": 5993,
      "insu": 5994,
      "##enti": 5995,
      "therapeutic": 5996,
      "chin": 5997,
      "resale": 5998,
      "news": 5999,
      "allowing": 6000,
      "alternatives": 6001,
      "indicators": 6002,
      "atlantic": 6003,
      "confirm": 6004,
      "refinance": 6005,
      "spin": 6006,
      "designs": 6007,
      "logistics": 6008,
      "bargaining": 6009,
      "granting": 6010,
      "rus": 6011,
      "143": 6012,
      "alleging": 6013,
      "statis": 6014,
      "steps": 6015,
      "little": 6016,
      "though": 6017,
      "furnish": 6018,
      "encoun": 6019,
      "proposals": 6020,
      "identifying": 6021,
      "buyer": 6022,
      "agricultural": 6023,
      "##ips": 6024,
      "insuff": 6025,
      "assurances": 6026,
      "properly": 6027,
      "tranch": 6028,
      "agree": 6029,
      "reclassifications": 6030,
      "subcontr": 6031,
      "constant": 6032,
      "##ape": 6033,
      "fiduciary": 6034,
      "engag": 6035,
      "penalty": 6036,
      "patterns": 6037,
      "##gu": 6038,
      "structured": 6039,
      "108": 6040,
      "secrets": 6041,
      "##loit": 6042,
      "deficiency": 6043,
      "demands": 6044,
      "enhancements": 6045,
      "##interest": 6046,
      "rents": 6047,
      "mountain": 6048,
      "unde": 6049,
      "##nst": 6050,
      "affairs": 6051,
      "documentation": 6052,
      "establishment": 6053,
      "sanc": 6054,
      "740": 6055,
      "decom": 6056,
      "discussions": 6057,
      "him": 6058,
      "sl": 6059,
      "noninterest": 6060,
      "catastr": 6061,
      "absor": 6062,
      "acre": 6063,
      "##ectic": 6064,
      "stan": 6065,
      "updated": 6066,
      "requisite": 6067,
      "priced": 6068,
      "promote": 6069,
      "failures": 6070,
      "alone": 6071,
      "##de": 6072,
      "##worth": 6073,
      "trustees": 6074,
      "##bac": 6075,
      "designation": 6076,
      "serious": 6077,
      "comments": 6078,
      "continually": 6079,
      "espec": 6080,
      "##day": 6081,
      "##do": 6082,
      "##mate": 6083,
      "104": 6084,
      "sug": 6085,
      "deferral": 6086,
      "break": 6087,
      "representative": 6088,
      "especially": 6089,
      "stocks": 6090,
      "calculate": 6091,
      "governments": 6092,
      "1985": 6093,
      "remote": 6094,
      "gm": 6095,
      "decid": 6096,
      "fails": 6097,
      "##hen": 6098,
      "minnes": 6099,
      "minnesota": 6100,
      "insufficient": 6101,
      "therm": 6102,
      "shipped": 6103,
      "jose": 6104,
      "reserv": 6105,
      "surface": 6106,
      "statute": 6107,
      "appoint": 6108,
      "universal": 6109,
      "broadband": 6110,
      "decommission": 6111,
      "fabric": 6112,
      "cards": 6113,
      "sought": 6114,
      "prepayments": 6115,
      "vig": 6116,
      "##atories": 6117,
      "##aneous": 6118,
      "##bl": 6119,
      "##urs": 6120,
      "kind": 6121,
      "##ounding": 6122,
      "exchanged": 6123,
      "disputes": 6124,
      "requests": 6125,
      "reimbursed": 6126,
      "files": 6127,
      "los": 6128,
      "limiting": 6129,
      "forfeitures": 6130,
      "misc": 6131,
      "##ture": 6132,
      "copyr": 6133,
      "indicates": 6134,
      "195": 6135,
      "ic": 6136,
      "apartment": 6137,
      "supported": 6138,
      "resolved": 6139,
      "##gs": 6140,
      "registrants": 6141,
      "450": 6142,
      "alig": 6143,
      "vessels": 6144,
      "jointly": 6145,
      "bench": 6146,
      "imaging": 6147,
      "consolidate": 6148,
      "thereon": 6149,
      "proposal": 6150,
      "installed": 6151,
      "missour": 6152,
      "missouri": 6153,
      "competes": 6154,
      "efficiencies": 6155,
      "##east": 6156,
      "calculating": 6157,
      "##itr": 6158,
      "colleg": 6159,
      "##ring": 6160,
      "quickly": 6161,
      "##ublic": 6162,
      "accrue": 6163,
      "tank": 6164,
      "science": 6165,
      "modify": 6166,
      "issuers": 6167,
      "constrain": 6168,
      "consolidating": 6169,
      "representations": 6170,
      "##ats": 6171,
      "train": 6172,
      "shorter": 6173,
      "##ount": 6174,
      "##ga": 6175,
      "truck": 6176,
      "financings": 6177,
      "doing": 6178,
      "##umin": 6179,
      "bridge": 6180,
      "chinese": 6181,
      "##ows": 6182,
      "indemnify": 6183,
      "assume": 6184,
      "pret": 6185,
      "##cal": 6186,
      "dispose": 6187,
      "productivity": 6188,
      "unaffiliated": 6189,
      "##echnology": 6190,
      "##factory": 6191,
      "##lex": 6192,
      "##usion": 6193,
      "accident": 6194,
      "comput": 6195,
      "peer": 6196,
      "deem": 6197,
      "sound": 6198,
      "calls": 6199,
      "connectic": 6200,
      "connecticut": 6201,
      "payors": 6202,
      "nr": 6203,
      "semi": 6204,
      "built": 6205,
      "carbon": 6206,
      "auditor": 6207,
      "##conn": 6208,
      "capability": 6209,
      "failed": 6210,
      "analysts": 6211,
      "##izona": 6212,
      "hire": 6213,
      "arizona": 6214,
      "encounter": 6215,
      "uk": 6216,
      "terminal": 6217,
      "staffing": 6218,
      "obsol": 6219,
      "protoc": 6220,
      "duty": 6221,
      "coast": 6222,
      "##bu": 6223,
      "obsolete": 6224,
      "cancellation": 6225,
      "commenc": 6226,
      "##isco": 6227,
      "meaningful": 6228,
      "##unded": 6229,
      "check": 6230,
      "silver": 6231,
      "attributed": 6232,
      "cellular": 6233,
      "pul": 6234,
      "vigor": 6235,
      "host": 6236,
      "commencement": 6237,
      "returned": 6238,
      "##zer": 6239,
      "authorizations": 6240,
      "absence": 6241,
      "asserted": 6242,
      "solid": 6243,
      "##ges": 6244,
      "ethanol": 6245,
      "##olf": 6246,
      "appearing": 6247,
      "##akes": 6248,
      "actually": 6249,
      "repayments": 6250,
      "percentages": 6251,
      "##itan": 6252,
      "intermedi": 6253,
      "stay": 6254,
      "spectrum": 6255,
      "jack": 6256,
      "##asters": 6257,
      "laboratories": 6258,
      "ster": 6259,
      "exercises": 6260,
      "lake": 6261,
      "concess": 6262,
      "##time": 6263,
      "dyn": 6264,
      "##pmg": 6265,
      "setting": 6266,
      "revisions": 6267,
      "102": 6268,
      "declining": 6269,
      "lowest": 6270,
      "intel": 6271,
      "corrective": 6272,
      "indications": 6273,
      "forwards": 6274,
      "meets": 6275,
      "##appro": 6276,
      "expose": 6277,
      "kent": 6278,
      "solic": 6279,
      "resign": 6280,
      "ced": 6281,
      "advantages": 6282,
      "ernst": 6283,
      "unexp": 6284,
      "breaches": 6285,
      "earth": 6286,
      "lost": 6287,
      "##ologies": 6288,
      "175": 6289,
      "maximize": 6290,
      "men": 6291,
      "path": 6292,
      "##itish": 6293,
      "jud": 6294,
      "employers": 6295,
      "british": 6296,
      "##ids": 6297,
      "climate": 6298,
      "innovative": 6299,
      "toward": 6300,
      "##dc": 6301,
      "directed": 6302,
      "##selves": 6303,
      "surv": 6304,
      "generic": 6305,
      "extreme": 6306,
      "omn": 6307,
      "hou": 6308,
      "believed": 6309,
      "##msc": 6310,
      "okl": 6311,
      "##odies": 6312,
      "prescription": 6313,
      "calculations": 6314,
      "##ading": 6315,
      "##ahoma": 6316,
      "clin": 6317,
      "##alls": 6318,
      "stable": 6319,
      "##hc": 6320,
      "##like": 6321,
      "invo": 6322,
      "##burg": 6323,
      "taxing": 6324,
      "##ct": 6325,
      "##ients": 6326,
      "harmed": 6327,
      "1984": 6328,
      "acting": 6329,
      "##ng": 6330,
      "characterized": 6331,
      "recapital": 6332,
      "kpmg": 6333,
      "decommissioning": 6334,
      "liber": 6335,
      "accred": 6336,
      "lessee": 6337,
      "isra": 6338,
      "##ticipated": 6339,
      "unanticipated": 6340,
      "148": 6341,
      "haw": 6342,
      "functionality": 6343,
      "nonac": 6344,
      "oklahoma": 6345,
      "formal": 6346,
      "tal": 6347,
      "##rees": 6348,
      "pollution": 6349,
      "peak": 6350,
      "structures": 6351,
      "mm": 6352,
      "negotiations": 6353,
      "deterioration": 6354,
      "pet": 6355,
      "considerations": 6356,
      "tons": 6357,
      "inclusion": 6358,
      "suspended": 6359,
      "biotechnology": 6360,
      "##elon": 6361,
      "paul": 6362,
      "absol": 6363,
      "itself": 6364,
      "##nessee": 6365,
      "blue": 6366,
      "interactive": 6367,
      "tennessee": 6368,
      "elim": 6369,
      "contracted": 6370,
      "shift": 6371,
      "occurring": 6372,
      "##tibility": 6373,
      "##tel": 6374,
      "procedure": 6375,
      "absolute": 6376,
      "404": 6377,
      "interruption": 6378,
      "franc": 6379,
      "elimination": 6380,
      "sand": 6381,
      "hong": 6382,
      "302": 6383,
      "soon": 6384,
      "##sb": 6385,
      "manages": 6386,
      "pu": 6387,
      "##cf": 6388,
      "antib": 6389,
      "##well": 6390,
      "retaining": 6391,
      "##iesel": 6392,
      "false": 6393,
      "ngl": 6394,
      "pretax": 6395,
      "evolving": 6396,
      "ore": 6397,
      "##employ": 6398,
      "forecast": 6399,
      "cms": 6400,
      "##inn": 6401,
      "718": 6402,
      "##sa": 6403,
      "body": 6404,
      "branches": 6405,
      "becoming": 6406,
      "hereof": 6407,
      "specifications": 6408,
      "string": 6409,
      "vigorously": 6410,
      "2021": 6411,
      "fifth": 6412,
      "unlike": 6413,
      "lond": 6414,
      "hyp": 6415,
      "satisfactory": 6416,
      "passed": 6417,
      "cut": 6418,
      "lieu": 6419,
      "collaborative": 6420,
      "forced": 6421,
      "movements": 6422,
      "coord": 6423,
      "side": 6424,
      "##oy": 6425,
      "##criptions": 6426,
      "performs": 6427,
      "supervis": 6428,
      "existence": 6429,
      "catastrop": 6430,
      "dedicated": 6431,
      "london": 6432,
      "ele": 6433,
      "harr": 6434,
      "discharge": 6435,
      "##eal": 6436,
      "avenue": 6437,
      "##iters": 6438,
      "##onom": 6439,
      "assembly": 6440,
      "103": 6441,
      "reversed": 6442,
      "lear": 6443,
      "enters": 6444,
      "takes": 6445,
      "restor": 6446,
      "##10": 6447,
      "willing": 6448,
      "curtail": 6449,
      "poor": 6450,
      "oppos": 6451,
      "flat": 6452,
      "##ux": 6453,
      "##criber": 6454,
      "compounds": 6455,
      "white": 6456,
      "##eration": 6457,
      "methodologies": 6458,
      "dan": 6459,
      "beverage": 6460,
      "allocate": 6461,
      "matures": 6462,
      "bind": 6463,
      "assumes": 6464,
      "cancelable": 6465,
      "automated": 6466,
      "apparel": 6467,
      "retrospective": 6468,
      "diseases": 6469,
      "johns": 6470,
      "legacy": 6471,
      "##lam": 6472,
      "uni": 6473,
      "houston": 6474,
      "thereunder": 6475,
      "146": 6476,
      "exemption": 6477,
      "inhib": 6478,
      "##ung": 6479,
      "tool": 6480,
      "covers": 6481,
      "##oud": 6482,
      "games": 6483,
      "nda": 6484,
      "subscriber": 6485,
      "leadership": 6486,
      "outcomes": 6487,
      "##rec": 6488,
      "screen": 6489,
      "concurrent": 6490,
      "oral": 6491,
      "##letion": 6492,
      "procurement": 6493,
      "reviewing": 6494,
      "inspection": 6495,
      "suspension": 6496,
      "withholding": 6497,
      "brazil": 6498,
      "unreg": 6499,
      "dilig": 6500,
      "allegations": 6501,
      "##pet": 6502,
      "##sop": 6503,
      "box": 6504,
      "ingred": 6505,
      "retro": 6506,
      "ques": 6507,
      "##ster": 6508,
      "##zz": 6509,
      "grand": 6510,
      "consuming": 6511,
      "compound": 6512,
      "##teen": 6513,
      "molec": 6514,
      "convenience": 6515,
      "##mer": 6516,
      "158": 6517,
      "##reek": 6518,
      "living": 6519,
      "interconn": 6520,
      "##lows": 6521,
      "##tes": 6522,
      "internationally": 6523,
      "consummated": 6524,
      "nutr": 6525,
      "student": 6526,
      "indication": 6527,
      "dry": 6528,
      "##abil": 6529,
      "205": 6530,
      "custod": 6531,
      "commonly": 6532,
      "aggregated": 6533,
      "##rey": 6534,
      "unresolved": 6535,
      "tox": 6536,
      "trades": 6537,
      "##vert": 6538,
      "administrator": 6539,
      "machines": 6540,
      "hu": 6541,
      "arbitration": 6542,
      "##ker": 6543,
      "cancelled": 6544,
      "875": 6545,
      "stringent": 6546,
      "sellers": 6547,
      "subcontract": 6548,
      "incorporate": 6549,
      "##ham": 6550,
      "reimburse": 6551,
      "625": 6552,
      "##oen": 6553,
      "skilled": 6554,
      "minimal": 6555,
      "alter": 6556,
      "##aces": 6557,
      "##rell": 6558,
      "##umption": 6559,
      "##top": 6560,
      "##issue": 6561,
      "sublease": 6562,
      "sanctions": 6563,
      "republic": 6564,
      "##atic": 6565,
      "confidence": 6566,
      "##asting": 6567,
      "outsourcing": 6568,
      "##opolitan": 6569,
      "accurate": 6570,
      "bulk": 6571,
      "pros": 6572,
      "evaluations": 6573,
      "variations": 6574,
      "defendant": 6575,
      "magn": 6576,
      "simplif": 6577,
      "##look": 6578,
      "retroactive": 6579,
      "##capital": 6580,
      "monitors": 6581,
      "##ucky": 6582,
      "slightly": 6583,
      "##ara": 6584,
      "##olution": 6585,
      "##opers": 6586,
      "involvement": 6587,
      "indemnity": 6588,
      "plc": 6589,
      "##asive": 6590,
      "attacks": 6591,
      "expenditure": 6592,
      "145": 6593,
      "reversal": 6594,
      "appears": 6595,
      "minerals": 6596,
      "##erve": 6597,
      "engineers": 6598,
      "worked": 6599,
      "nominating": 6600,
      "metropolitan": 6601,
      "organic": 6602,
      "copper": 6603,
      "licensees": 6604,
      "creation": 6605,
      "regulate": 6606,
      "please": 6607,
      "powers": 6608,
      "unexpected": 6609,
      "smart": 6610,
      "##crual": 6611,
      "##using": 6612,
      "accessories": 6613,
      "##mi": 6614,
      "rank": 6615,
      "pp": 6616,
      "ours": 6617,
      "probability": 6618,
      "gall": 6619,
      "nonaccrual": 6620,
      "succeed": 6621,
      "cf": 6622,
      "fewer": 6623,
      "deloit": 6624,
      "archit": 6625,
      "deloitte": 6626,
      "acceleration": 6627,
      "kong": 6628,
      "stages": 6629,
      "surrender": 6630,
      "hol": 6631,
      "##atement": 6632,
      "denied": 6633,
      "jeff": 6634,
      "affirm": 6635,
      "withdrawal": 6636,
      "lang": 6637,
      "heart": 6638,
      "confidentiality": 6639,
      "france": 6640,
      "escal": 6641,
      "alumin": 6642,
      "##kets": 6643,
      "tissue": 6644,
      "fast": 6645,
      "225": 6646,
      "##oline": 6647,
      "##psc": 6648,
      "exelon": 6649,
      "attached": 6650,
      "contemplated": 6651,
      "wat": 6652,
      "music": 6653,
      "addresses": 6654,
      "ray": 6655,
      "##lord": 6656,
      "resort": 6657,
      "installment": 6658,
      "independently": 6659,
      "vul": 6660,
      "dental": 6661,
      "afric": 6662,
      "cg": 6663,
      "132": 6664,
      "ber": 6665,
      "reh": 6666,
      "package": 6667,
      "mir": 6668,
      "spot": 6669,
      "reimbursements": 6670,
      "enact": 6671,
      "ut": 6672,
      "hurr": 6673,
      "##asc": 6674,
      "diverse": 6675,
      "114": 6676,
      "wall": 6677,
      "onc": 6678,
      "pursuing": 6679,
      "##ging": 6680,
      "copies": 6681,
      "remit": 6682,
      "sus": 6683,
      "118": 6684,
      "hurric": 6685,
      "maturing": 6686,
      "prospectively": 6687,
      "merged": 6688,
      "comparing": 6689,
      "standby": 6690,
      "rentals": 6691,
      "basin": 6692,
      "forecasts": 6693,
      "judic": 6694,
      "creek": 6695,
      "pledge": 6696,
      "##oft": 6697,
      "9b": 6698,
      "gives": 6699,
      "footn": 6700,
      "normally": 6701,
      "releases": 6702,
      "kr": 6703,
      "##ication": 6704,
      "register": 6705,
      "dismissed": 6706,
      "hom": 6707,
      "surgical": 6708,
      "negotiate": 6709,
      "machin": 6710,
      "pcs": 6711,
      "integrity": 6712,
      "aluminum": 6713,
      "##ester": 6714,
      "outlook": 6715,
      "ots": 6716,
      "##mon": 6717,
      "profile": 6718,
      "introduce": 6719,
      "database": 6720,
      "606": 6721,
      "micros": 6722,
      "biom": 6723,
      "pharmac": 6724,
      "conventional": 6725,
      "rm": 6726,
      "exceeding": 6727,
      "practicable": 6728,
      "depletion": 6729,
      "ceased": 6730,
      "angel": 6731,
      "declare": 6732,
      "india": 6733,
      "162": 6734,
      "hos": 6735,
      "insol": 6736,
      "psc": 6737,
      "dos": 6738,
      "1b": 6739,
      "##yle": 6740,
      "college": 6741,
      "##take": 6742,
      "##apor": 6743,
      "##ario": 6744,
      "shelf": 6745,
      "kansas": 6746,
      "franchisees": 6747,
      "undercapital": 6748,
      "ds": 6749,
      "##hy": 6750,
      "##oth": 6751,
      "pertaining": 6752,
      "exclude": 6753,
      "underwriters": 6754,
      "contractor": 6755,
      "kentucky": 6756,
      "timber": 6757,
      "##com": 6758,
      "signal": 6759,
      "##istrib": 6760,
      "shut": 6761,
      "analyses": 6762,
      "nonqualified": 6763,
      "heading": 6764,
      "hir": 6765,
      "360": 6766,
      "##ommod": 6767,
      "amends": 6768,
      "##pression": 6769,
      "nurs": 6770,
      "cloud": 6771,
      "382": 6772,
      "arth": 6773,
      "##acc": 6774,
      "accommod": 6775,
      "undercapitalized": 6776,
      "direction": 6777,
      "effected": 6778,
      "supr": 6779,
      "ways": 6780,
      "extensions": 6781,
      "ton": 6782,
      "recapitalization": 6783,
      "seasonality": 6784,
      "##rete": 6785,
      "##reted": 6786,
      "creating": 6787,
      "commence": 6788,
      "move": 6789,
      "##oz": 6790,
      "johnson": 6791,
      "##ospace": 6792,
      "fresh": 6793,
      "tobac": 6794,
      "##olver": 6795,
      "sam": 6796,
      "contact": 6797,
      "ash": 6798,
      "distin": 6799,
      "reduces": 6800,
      "collaborators": 6801,
      "cv": 6802,
      "examinations": 6803,
      "rising": 6804,
      "esop": 6805,
      "dial": 6806,
      "carryforward": 6807,
      "speculative": 6808,
      "cycles": 6809,
      "##bb": 6810,
      "tranche": 6811,
      "behav": 6812,
      "delinquent": 6813,
      "foundation": 6814,
      "machinery": 6815,
      "adjustable": 6816,
      "comparative": 6817,
      "standing": 6818,
      "raising": 6819,
      "##americ": 6820,
      "phot": 6821,
      "certainty": 6822,
      "aim": 6823,
      "##wear": 6824,
      "liberty": 6825,
      "judicial": 6826,
      "centr": 6827,
      "insurer": 6828,
      "categor": 6829,
      "funda": 6830,
      "fundamental": 6831,
      "##bor": 6832,
      "tobacco": 6833,
      "expert": 6834,
      "##inate": 6835,
      "printing": 6836,
      "hill": 6837,
      "##tures": 6838,
      "annualized": 6839,
      "forfeiture": 6840,
      "weight": 6841,
      "owning": 6842,
      "territory": 6843,
      "toxic": 6844,
      "mont": 6845,
      "reclassification": 6846,
      "qualification": 6847,
      "inherently": 6848,
      "recommendations": 6849,
      "accelerate": 6850,
      "truc": 6851,
      "distance": 6852,
      "pump": 6853,
      "diligence": 6854,
      "prove": 6855,
      "narr": 6856,
      "penetr": 6857,
      "cn": 6858,
      "engaging": 6859,
      "demonstrate": 6860,
      "154": 6861,
      "prohibits": 6862,
      "launched": 6863,
      "concentrated": 6864,
      "##edia": 6865,
      "lay": 6866,
      "therapeutics": 6867,
      "word": 6868,
      "batter": 6869,
      "##cel": 6870,
      "architect": 6871,
      "surrounding": 6872,
      "propane": 6873,
      "citiz": 6874,
      "tum": 6875,
      "print": 6876,
      "americas": 6877,
      "varies": 6878,
      "##ligence": 6879,
      "stanley": 6880,
      "conducts": 6881,
      "harbor": 6882,
      "contractually": 6883,
      "landlord": 6884,
      "hs": 6885,
      "uniform": 6886,
      "906": 6887,
      "##ush": 6888,
      "influenced": 6889,
      "##aps": 6890,
      "laser": 6891,
      "spring": 6892,
      "aerospace": 6893,
      "develops": 6894,
      "hearing": 6895,
      "imposition": 6896,
      "labeling": 6897,
      "touc": 6898,
      "organiz": 6899,
      "unfunded": 6900,
      "jus": 6901,
      "##othe": 6902,
      "undertak": 6903,
      "situations": 6904,
      "supreme": 6905,
      "nol": 6906,
      "##va": 6907,
      "collectability": 6908,
      "resolve": 6909,
      "##erry": 6910,
      "upgrade": 6911,
      "adap": 6912,
      "##alid": 6913,
      "jobs": 6914,
      "##istributed": 6915,
      "done": 6916,
      "absorb": 6917,
      "debts": 6918,
      "refr": 6919,
      "clearance": 6920,
      "nc": 6921,
      "lti": 6922,
      "undertake": 6923,
      "161": 6924,
      "stip": 6925,
      "chil": 6926,
      "terrorism": 6927,
      "##aska": 6928,
      "optical": 6929,
      "##aza": 6930,
      "##urate": 6931,
      "fron": 6932,
      "far": 6933,
      "keep": 6934,
      "##che": 6935,
      "charles": 6936,
      "feasibility": 6937,
      "rico": 6938,
      "##lp": 6939,
      "catalog": 6940,
      "challenge": 6941,
      "causing": 6942,
      "faith": 6943,
      "affects": 6944,
      "##bridge": 6945,
      "sb": 6946,
      "automatic": 6947,
      "ruling": 6948,
      "chartered": 6949,
      "undistributed": 6950,
      "##ference": 6951,
      "gradu": 6952,
      "art": 6953,
      "unkn": 6954,
      "alleges": 6955,
      "describ": 6956,
      "510": 6957,
      "stabil": 6958,
      "bell": 6959,
      "espp": 6960,
      "starting": 6961,
      "refining": 6962,
      "gh": 6963,
      "animal": 6964,
      "live": 6965,
      "##ominant": 6966,
      "touche": 6967,
      "continuation": 6968,
      "accretion": 6969,
      "segreg": 6970,
      "sectors": 6971,
      "atm": 6972,
      "citi": 6973,
      "writing": 6974,
      "remove": 6975,
      "afor": 6976,
      "cfo": 6977,
      "websites": 6978,
      "severity": 6979,
      "containers": 6980,
      "##eries": 6981,
      "creditworth": 6982,
      "recognizing": 6983,
      "unknown": 6984,
      "widely": 6985,
      "cab": 6986,
      "##vency": 6987,
      "students": 6988,
      "induc": 6989,
      "##aign": 6990,
      "wy": 6991,
      "adviser": 6992,
      "unb": 6993,
      "front": 6994,
      "##ode": 6995,
      "corn": 6996,
      "2022": 6997,
      "golf": 6998,
      "revolver": 6999,
      "enhancement": 7000,
      "##eters": 7001,
      "alm": 7002,
      "ameren": 7003,
      "##market": 7004,
      "electronically": 7005,
      "##lor": 7006,
      "preparing": 7007,
      "sent": 7008,
      "complexity": 7009,
      "sterling": 7010,
      "son": 7011,
      "clarifies": 7012,
      "sop": 7013,
      "##eful": 7014,
      "recruit": 7015,
      "gal": 7016,
      "completing": 7017,
      "penn": 7018,
      "overse": 7019,
      "bach": 7020,
      "recyc": 7021,
      "designing": 7022,
      "invalid": 7023,
      "complying": 7024,
      "##trust": 7025,
      "1983": 7026,
      "merit": 7027,
      "estimation": 7028,
      "organizational": 7029,
      "departments": 7030,
      "contingency": 7031,
      "lat": 7032,
      "entirety": 7033,
      "##iles": 7034,
      "finally": 7035,
      "terrorist": 7036,
      "analog": 7037,
      "##lined": 7038,
      "cooperative": 7039,
      "dynam": 7040,
      "nonperforming": 7041,
      "210": 7042,
      "advice": 7043,
      "therapies": 7044,
      "155": 7045,
      "pricewater": 7046,
      "remedies": 7047,
      "ark": 7048,
      "england": 7049,
      "broadcasting": 7050,
      "220": 7051,
      "entirely": 7052,
      "##sw": 7053,
      "proportionate": 7054,
      "##tron": 7055,
      "defines": 7056,
      "##ographic": 7057,
      "##ulate": 7058,
      "##pay": 7059,
      "economically": 7060,
      "midwest": 7061,
      "prol": 7062,
      "accomp": 7063,
      "horizon": 7064,
      "accomplish": 7065,
      "gasoline": 7066,
      "notified": 7067,
      "composite": 7068,
      "stability": 7069,
      "consumption": 7070,
      "plastic": 7071,
      "renov": 7072,
      "economies": 7073,
      "aggress": 7074,
      "##houseco": 7075,
      "capable": 7076,
      "references": 7077,
      "band": 7078,
      "pricewaterhouseco": 7079,
      "temporarily": 7080,
      "##ront": 7081,
      "courts": 7082,
      "angeles": 7083,
      "authoritative": 7084,
      "perpet": 7085,
      "spreads": 7086,
      "headc": 7087,
      "##aho": 7088,
      "pricewaterhousecoopers": 7089,
      "hon": 7090,
      "refinery": 7091,
      "downgr": 7092,
      "image": 7093,
      "campaign": 7094,
      "aver": 7095,
      "accuracy": 7096,
      "##load": 7097,
      "thirty": 7098,
      "rac": 7099,
      "joseph": 7100,
      "numbers": 7101,
      "aggressive": 7102,
      "##ementioned": 7103,
      "##held": 7104,
      "defects": 7105,
      "##aly": 7106,
      "debenture": 7107,
      "##net": 7108,
      "1980": 7109,
      "founded": 7110,
      "produces": 7111,
      "flexible": 7112,
      "headcount": 7113,
      "##erto": 7114,
      "latin": 7115,
      "var": 7116,
      "capitalize": 7117,
      "decide": 7118,
      "compli": 7119,
      "enactment": 7120,
      "summer": 7121,
      "whe": 7122,
      "cyber": 7123,
      "publishing": 7124,
      "##tifying": 7125,
      "mission": 7126,
      "hypothe": 7127,
      "skills": 7128,
      "puerto": 7129,
      "payables": 7130,
      "buyers": 7131,
      "tech": 7132,
      "diam": 7133,
      "pepco": 7134,
      "138": 7135,
      "rebates": 7136,
      "conflict": 7137,
      "tub": 7138,
      "upgrades": 7139,
      "constraints": 7140,
      "restatement": 7141,
      "lev": 7142,
      "temper": 7143,
      "followed": 7144,
      "aforementioned": 7145,
      "113": 7146,
      "##uda": 7147,
      "##icing": 7148,
      "behavior": 7149,
      "unear": 7150,
      "supervisory": 7151,
      "dispute": 7152,
      "unearned": 7153,
      "assistant": 7154,
      "bak": 7155,
      "terminates": 7156,
      "##ourced": 7157,
      "innovation": 7158,
      "curve": 7159,
      "task": 7160,
      "##board": 7161,
      "alliances": 7162,
      "##ike": 7163,
      "improper": 7164,
      "plaza": 7165,
      "fuels": 7166,
      "educational": 7167,
      "binding": 7168,
      "island": 7169,
      "##veloped": 7170,
      "##ext": 7171,
      "books": 7172,
      "differenti": 7173,
      "vulner": 7174,
      "alle": 7175,
      "compares": 7176,
      "scen": 7177,
      "complaints": 7178,
      "aid": 7179,
      "correct": 7180,
      "permitting": 7181,
      "lyn": 7182,
      "vies": 7183,
      "williams": 7184,
      "eu": 7185,
      "##idents": 7186,
      "surve": 7187,
      "server": 7188,
      "disasters": 7189,
      "restoration": 7190,
      "dose": 7191,
      "##dren": 7192,
      "122": 7193,
      "emergency": 7194,
      "pse": 7195,
      "decided": 7196,
      "atlanta": 7197,
      "sea": 7198,
      "##01": 7199,
      "choice": 7200,
      "renewals": 7201,
      "careful": 7202,
      "vessel": 7203,
      "fort": 7204,
      "soph": 7205,
      "deep": 7206,
      "collec": 7207,
      "sciences": 7208,
      "137": 7209,
      "151": 7210,
      "undertaken": 7211,
      "##tier": 7212,
      "hud": 7213,
      "hypothetical": 7214,
      "boards": 7215,
      "vacc": 7216,
      "diversification": 7217,
      "subsid": 7218,
      "##ert": 7219,
      "audio": 7220,
      "remedi": 7221,
      "fields": 7222,
      "nonrec": 7223,
      "tri": 7224,
      "##ette": 7225,
      "drawn": 7226,
      "demonstrated": 7227,
      "phone": 7228,
      "posted": 7229,
      "pf": 7230,
      "ax": 7231,
      "redemptions": 7232,
      "appraisal": 7233,
      "neur": 7234,
      "ltip": 7235,
      "cry": 7236,
      "interruptions": 7237,
      "devote": 7238,
      "finding": 7239,
      "alco": 7240,
      "ranges": 7241,
      "##acent": 7242,
      "##iw": 7243,
      "na": 7244,
      "overr": 7245,
      "diesel": 7246,
      "##fr": 7247,
      "gar": 7248,
      "vision": 7249,
      "sequ": 7250,
      "children": 7251,
      "bachel": 7252,
      "wmmsc": 7253,
      "nearly": 7254,
      "hun": 7255,
      "emphasis": 7256,
      "165": 7257,
      "prepare": 7258,
      "unregistered": 7259,
      "unus": 7260,
      "bankers": 7261,
      "recip": 7262,
      "rmb": 7263,
      "adopting": 7264,
      "detected": 7265,
      "tend": 7266,
      "124": 7267,
      "fash": 7268,
      "190": 7269,
      "heating": 7270,
      "brown": 7271,
      "modern": 7272,
      "##key": 7273,
      "170": 7274,
      "##entions": 7275,
      "apartments": 7276,
      "resorts": 7277,
      "##essed": 7278,
      "##umber": 7279,
      "##owa": 7280,
      "vacation": 7281,
      "##quir": 7282,
      "communicated": 7283,
      "noncomp": 7284,
      "lot": 7285,
      "##za": 7286,
      "orient": 7287,
      "pound": 7288,
      "ae": 7289,
      "moody": 7290,
      "infringe": 7291,
      "benchmark": 7292,
      "adding": 7293,
      "117": 7294,
      "rand": 7295,
      "developers": 7296,
      "ultr": 7297,
      "fixtures": 7298,
      "oak": 7299,
      "holid": 7300,
      "##mar": 7301,
      "heat": 7302,
      "understand": 7303,
      "##gi": 7304,
      "1940": 7305,
      "##ams": 7306,
      "gate": 7307,
      "##allas": 7308,
      "dimin": 7309,
      "sophistic": 7310,
      "pharmacy": 7311,
      "spe": 7312,
      "licensee": 7313,
      "machine": 7314,
      "interested": 7315,
      "mcf": 7316,
      "come": 7317,
      "environments": 7318,
      "##ban": 7319,
      "260": 7320,
      "tor": 7321,
      "container": 7322,
      "240": 7323,
      "founder": 7324,
      "resignation": 7325,
      "computers": 7326,
      "telecom": 7327,
      "pca": 7328,
      "airlines": 7329,
      "forfeited": 7330,
      "650": 7331,
      "column": 7332,
      "##app": 7333,
      "notification": 7334,
      "##ivity": 7335,
      "mad": 7336,
      "appointment": 7337,
      "##omen": 7338,
      "divisions": 7339,
      "cin": 7340,
      "efficiently": 7341,
      "resc": 7342,
      "##ersed": 7343,
      "leveraged": 7344,
      "##utory": 7345,
      "shortf": 7346,
      "engagement": 7347,
      "conservation": 7348,
      "116": 7349,
      "ts": 7350,
      "##uctions": 7351,
      "##pp": 7352,
      "perpetual": 7353,
      "ford": 7354,
      "concept": 7355,
      "14a": 7356,
      "martin": 7357,
      "typical": 7358,
      "exclusively": 7359,
      "kore": 7360,
      "africa": 7361,
      "unqualified": 7362,
      "##istry": 7363,
      "oems": 7364,
      "tur": 7365,
      "tail": 7366,
      "midstream": 7367,
      "##issu": 7368,
      "##tili": 7369,
      "550": 7370,
      "nationwide": 7371,
      "occupied": 7372,
      "attributes": 7373,
      "pb": 7374,
      "frb": 7375,
      "153": 7376,
      "enj": 7377,
      "##ola": 7378,
      "simult": 7379,
      "cc": 7380,
      "instruction": 7381,
      "israel": 7382,
      "undeveloped": 7383,
      "204": 7384,
      "acad": 7385,
      "assesses": 7386,
      "die": 7387,
      "ly": 7388,
      "drop": 7389,
      "149": 7390,
      "associations": 7391,
      "230": 7392,
      "rout": 7393,
      "heavy": 7394,
      "##ican": 7395,
      "inquir": 7396,
      "berm": 7397,
      "exclusivity": 7398,
      "275": 7399,
      "##iff": 7400,
      "medicine": 7401,
      "fc": 7402,
      "##kin": 7403,
      "##une": 7404,
      "fired": 7405,
      "refined": 7406,
      "ace": 7407,
      "towards": 7408,
      "occas": 7409,
      "eag": 7410,
      "spend": 7411,
      "arthur": 7412,
      "##shares": 7413,
      "proven": 7414,
      "japanese": 7415,
      "basel": 7416,
      "605": 7417,
      "##ibly": 7418,
      "citizens": 7419,
      "desired": 7420,
      "##fa": 7421,
      "arre": 7422,
      "pv": 7423,
      "constructed": 7424,
      "moving": 7425,
      "config": 7426,
      "pnc": 7427,
      "1122": 7428,
      "##ectivity": 7429,
      "boe": 7430,
      "restructured": 7431,
      "##bled": 7432,
      "true": 7433,
      "adjacent": 7434,
      "quotations": 7435,
      "prospectus": 7436,
      "dallas": 7437,
      "reinvested": 7438,
      "attempts": 7439,
      "affordable": 7440,
      "cb": 7441,
      "derive": 7442,
      "subjects": 7443,
      "took": 7444,
      "networking": 7445,
      "##ica": 7446,
      "substitute": 7447,
      "uncon": 7448,
      "oreg": 7449,
      "jones": 7450,
      "indices": 7451,
      "surgery": 7452,
      "deuts": 7453,
      "bure": 7454,
      "oregon": 7455,
      "buying": 7456,
      "lump": 7457,
      "119": 7458,
      "mcc": 7459,
      "ready": 7460,
      "quantity": 7461,
      "tower": 7462,
      "pil": 7463,
      "deployment": 7464,
      "##lusive": 7465,
      "enrollment": 7466,
      "pools": 7467,
      "prosec": 7468,
      "wages": 7469,
      "multif": 7470,
      "bios": 7471,
      "hem": 7472,
      "shortages": 7473,
      "mig": 7474,
      "legally": 7475,
      "complementary": 7476,
      "##ibus": 7477,
      "relies": 7478,
      "##isms": 7479,
      "billings": 7480,
      "sprint": 7481,
      "extending": 7482,
      "fashion": 7483,
      "mae": 7484,
      "langu": 7485,
      "recession": 7486,
      "bachelor": 7487,
      "126": 7488,
      "awar": 7489,
      "##ky": 7490,
      "resigned": 7491,
      "##iel": 7492,
      "ot": 7493,
      "caps": 7494,
      "cleanu": 7495,
      "multiplied": 7496,
      "eligibility": 7497,
      "contributing": 7498,
      "mechanical": 7499,
      "align": 7500,
      "##25": 7501,
      "discour": 7502,
      "129": 7503,
      "##isa": 7504,
      "bp": 7505,
      "##standing": 7506,
      "##ea": 7507,
      "awareness": 7508,
      "ligh": 7509,
      "iowa": 7510,
      "scott": 7511,
      "motiv": 7512,
      "trou": 7513,
      "perceived": 7514,
      "works": 7515,
      "##ides": 7516,
      "format": 7517,
      "cult": 7518,
      "##rals": 7519,
      "resellers": 7520,
      "##times": 7521,
      "creditworthiness": 7522,
      "bermuda": 7523,
      "##gines": 7524,
      "hereto": 7525,
      "thrift": 7526,
      "ham": 7527,
      "##porting": 7528,
      "##uccess": 7529,
      "##eterm": 7530,
      "utah": 7531,
      "bed": 7532,
      "counties": 7533,
      "focuses": 7534,
      "approximated": 7535,
      "copyright": 7536,
      "##uccessful": 7537,
      "mall": 7538,
      "##ascular": 7539,
      "unsuccessful": 7540,
      "bott": 7541,
      "pas": 7542,
      "##mond": 7543,
      "drill": 7544,
      "causes": 7545,
      "##hs": 7546,
      "mechanism": 7547,
      "imposes": 7548,
      "moder": 7549,
      "cla": 7550,
      "remedial": 7551,
      "rob": 7552,
      "patented": 7553,
      "passeng": 7554,
      "trail": 7555,
      "##oir": 7556,
      "caution": 7557,
      "##acle": 7558,
      "variability": 7559,
      "arkansas": 7560,
      "vii": 7561,
      "ke": 7562,
      "280": 7563,
      "indentures": 7564,
      "enabling": 7565,
      "miscell": 7566,
      "miscellaneous": 7567,
      "dc": 7568,
      "##ystem": 7569,
      "wastes": 7570,
      "leader": 7571,
      "hiring": 7572,
      "teams": 7573,
      "##alle": 7574,
      "words": 7575,
      "flood": 7576,
      "127": 7577,
      "frontier": 7578,
      "heavily": 7579,
      "deliveries": 7580,
      "advertisers": 7581,
      "underground": 7582,
      "cleanup": 7583,
      "aggregating": 7584,
      "##apore": 7585,
      "134": 7586,
      "frag": 7587,
      "game": 7588,
      "engines": 7589,
      "##group": 7590,
      "singapore": 7591,
      "contents": 7592,
      "broader": 7593,
      "##ki": 7594,
      "attend": 7595,
      "##opharm": 7596,
      "trs": 7597,
      "output": 7598,
      "divestiture": 7599,
      "ven": 7600,
      "fulfillment": 7601,
      "compensated": 7602,
      "hal": 7603,
      "treatments": 7604,
      "said": 7605,
      "initiate": 7606,
      "glass": 7607,
      "tab": 7608,
      "iso": 7609,
      "interven": 7610,
      "desir": 7611,
      "turb": 7612,
      "initiative": 7613,
      "sr": 7614,
      "accredited": 7615,
      "newsp": 7616,
      "##ptible": 7617,
      "nominal": 7618,
      "terminals": 7619,
      "shif": 7620,
      "collectibility": 7621,
      "depth": 7622,
      "hund": 7623,
      "anc": 7624,
      "rigs": 7625,
      "abb": 7626,
      "##avail": 7627,
      "##ocket": 7628,
      "incurring": 7629,
      "prescrib": 7630,
      "lap": 7631,
      "mel": 7632,
      "considerable": 7633,
      "disrupt": 7634,
      "relocation": 7635,
      "trib": 7636,
      "##aneously": 7637,
      "vegas": 7638,
      "magaz": 7639,
      "constitutes": 7640,
      "analyze": 7641,
      "sulf": 7642,
      "param": 7643,
      "mold": 7644,
      "1982": 7645,
      "##atient": 7646,
      "leaseback": 7647,
      "residents": 7648,
      "background": 7649,
      "composed": 7650,
      "fish": 7651,
      "job": 7652,
      "hundred": 7653,
      "##front": 7654,
      "vs": 7655,
      "##build": 7656,
      "##yne": 7657,
      "##thetic": 7658,
      "eagle": 7659,
      "##ollo": 7660,
      "mp": 7661,
      "nursing": 7662,
      "territories": 7663,
      "customized": 7664,
      "##uits": 7665,
      "dissolution": 7666,
      "declaration": 7667,
      "refers": 7668,
      "protocol": 7669,
      "reservoir": 7670,
      "merchants": 7671,
      "comed": 7672,
      "continuously": 7673,
      "discuss": 7674,
      "tc": 7675,
      "815": 7676,
      "rh": 7677,
      "##eless": 7678,
      "originate": 7679,
      "attain": 7680,
      "integrating": 7681,
      "lam": 7682,
      "amp": 7683,
      "310": 7684,
      "##icted": 7685,
      "possession": 7686,
      "##ze": 7687,
      "almost": 7688,
      "deutsche": 7689,
      "cad": 7690,
      "possibly": 7691,
      "acreage": 7692,
      "##emaking": 7693,
      "##downs": 7694,
      "learning": 7695,
      "tariffs": 7696,
      "silicon": 7697,
      "dominion": 7698,
      "competitor": 7699,
      "mt": 7700,
      "mbs": 7701,
      "##emic": 7702,
      "cra": 7703,
      "bureau": 7704,
      "ffo": 7705,
      "ni": 7706,
      "##amily": 7707,
      "beach": 7708,
      "managerial": 7709,
      "decreasing": 7710,
      "sometimes": 7711,
      "136": 7712,
      "cool": 7713,
      "possess": 7714,
      "challenging": 7715,
      "moved": 7716,
      "arrears": 7717,
      "seat": 7718,
      "permanently": 7719,
      "protein": 7720,
      "precision": 7721,
      "##ano": 7722,
      "comprising": 7723,
      "hawai": 7724,
      "francisco": 7725,
      "mortal": 7726,
      "##que": 7727,
      "takeover": 7728,
      "array": 7729,
      "lands": 7730,
      "deposited": 7731,
      "defending": 7732,
      "ju": 7733,
      "demographic": 7734,
      "dup": 7735,
      "finalized": 7736,
      "continental": 7737,
      "clo": 7738,
      "##rill": 7739,
      "##quencies": 7740,
      "big": 7741,
      "discontinue": 7742,
      "practical": 7743,
      "multifamily": 7744,
      "prudent": 7745,
      "mortality": 7746,
      "##12": 7747,
      "headquarter": 7748,
      "warner": 7749,
      "franchises": 7750,
      "##ersen": 7751,
      "winter": 7752,
      "##vi": 7753,
      "##ema": 7754,
      "scal": 7755,
      "##gc": 7756,
      "167": 7757,
      "pace": 7758,
      "166": 7759,
      "##anium": 7760,
      "##illary": 7761,
      "##30": 7762,
      "injection": 7763,
      "always": 7764,
      "excise": 7765,
      "construct": 7766,
      "##lets": 7767,
      "notwith": 7768,
      "mentioned": 7769,
      "gard": 7770,
      "notwithstanding": 7771,
      "standardized": 7772,
      "fract": 7773,
      "distinct": 7774,
      "subscriptions": 7775,
      "brook": 7776,
      "scr": 7777,
      "ingredients": 7778,
      "##stock": 7779,
      "delivering": 7780,
      "##missions": 7781,
      "lessees": 7782,
      "purported": 7783,
      "##era": 7784,
      "focusing": 7785,
      "distributes": 7786,
      "deliverables": 7787,
      "trump": 7788,
      "producer": 7789,
      "bancshares": 7790,
      "##fund": 7791,
      "sophisticated": 7792,
      "147": 7793,
      "nm": 7794,
      "predicted": 7795,
      "schools": 7796,
      "ros": 7797,
      "comprise": 7798,
      "325": 7799,
      "novel": 7800,
      "acute": 7801,
      "iron": 7802,
      "nutrition": 7803,
      "insign": 7804,
      "compliant": 7805,
      "dependence": 7806,
      "aviation": 7807,
      "omnibus": 7808,
      "divert": 7809,
      "2023": 7810,
      "ey": 7811,
      "categorized": 7812,
      "grew": 7813,
      "156": 7814,
      "supplied": 7815,
      "bodies": 7816,
      "captions": 7817,
      "##aul": 7818,
      "##adel": 7819,
      "indian": 7820,
      "##brl": 7821,
      "women": 7822,
      "##ena": 7823,
      "##ij": 7824,
      "orderly": 7825,
      "##mo": 7826,
      "vill": 7827,
      "substance": 7828,
      "tracking": 7829,
      "601": 7830,
      "federally": 7831,
      "career": 7832,
      "graphic": 7833,
      "violated": 7834,
      "golden": 7835,
      "rub": 7836,
      "southwest": 7837,
      "carefully": 7838,
      "nj": 7839,
      "metrics": 7840,
      "##iwan": 7841,
      "##la": 7842,
      "doe": 7843,
      "##ka": 7844,
      "##located": 7845,
      "films": 7846,
      "lessor": 7847,
      "impl": 7848,
      "nin": 7849,
      "qualifications": 7850,
      "affirmative": 7851,
      "century": 7852,
      "associate": 7853,
      "connect": 7854,
      "pit": 7855,
      "vit": 7856,
      "192": 7857,
      "panel": 7858,
      "##hol": 7859,
      "xbrl": 7860,
      "liquids": 7861,
      "remeas": 7862,
      "##bus": 7863,
      "unpr": 7864,
      "define": 7865,
      "encourage": 7866,
      "australian": 7867,
      "##apers": 7868,
      "taiwan": 7869,
      "##han": 7870,
      "impacting": 7871,
      "marks": 7872,
      "approving": 7873,
      "ancillary": 7874,
      "##gun": 7875,
      "liquidated": 7876,
      "virtually": 7877,
      "refunds": 7878,
      "##aco": 7879,
      "pd": 7880,
      "brief": 7881,
      "168": 7882,
      "hybr": 7883,
      "payout": 7884,
      "mile": 7885,
      "##rev": 7886,
      "coupon": 7887,
      "solicitation": 7888,
      "alternate": 7889,
      "headquartered": 7890,
      "conclusion": 7891,
      "complied": 7892,
      "drivers": 7893,
      "prevented": 7894,
      "jpm": 7895,
      "accrues": 7896,
      "belief": 7897,
      "loyal": 7898,
      "unpro": 7899,
      "scru": 7900,
      "existed": 7901,
      "policyholders": 7902,
      "850": 7903,
      "collaborations": 7904,
      "strict": 7905,
      "phi": 7906,
      "##eck": 7907,
      "shell": 7908,
      "coupled": 7909,
      "wid": 7910,
      "downward": 7911,
      "##ologic": 7912,
      "taxed": 7913,
      "debtors": 7914,
      "troubled": 7915,
      "##osph": 7916,
      "coating": 7917,
      "assert": 7918,
      "stem": 7919,
      "##oenix": 7920,
      "diversion": 7921,
      "##print": 7922,
      "domain": 7923,
      "unavail": 7924,
      "##ochem": 7925,
      "productive": 7926,
      "ns": 7927,
      "structural": 7928,
      "##ores": 7929,
      "equals": 7930,
      "hart": 7931,
      "annuities": 7932,
      "1350": 7933,
      "begins": 7934,
      "tn": 7935,
      "northwest": 7936,
      "##inees": 7937,
      "sar": 7938,
      "disbur": 7939,
      "nols": 7940,
      "originations": 7941,
      "repricing": 7942,
      "nominees": 7943,
      "steam": 7944,
      "predominant": 7945,
      "phoenix": 7946,
      "accruing": 7947,
      "##tile": 7948,
      "enabled": 7949,
      "##umb": 7950,
      "nich": 7951,
      "context": 7952,
      "fib": 7953,
      "unfor": 7954,
      "expands": 7955,
      "unions": 7956,
      "270": 7957,
      "##stein": 7958,
      "challenged": 7959,
      "139": 7960,
      "outf": 7961,
      "santa": 7962,
      "sourcing": 7963,
      "reits": 7964,
      "185": 7965,
      "##erved": 7966,
      "##outh": 7967,
      "##kee": 7968,
      "weekly": 7969,
      "##eny": 7970,
      "##ysis": 7971,
      "updates": 7972,
      "interface": 7973,
      "automation": 7974,
      "pnm": 7975,
      "russ": 7976,
      "radi": 7977,
      "##ergies": 7978,
      "microsoft": 7979,
      "council": 7980,
      "incidental": 7981,
      "##cence": 7982,
      "parking": 7983,
      "peter": 7984,
      "fm": 7985,
      "protected": 7986,
      "gap": 7987,
      "delinquency": 7988,
      "lod": 7989,
      "pcaob": 7990,
      "attracting": 7991,
      "320": 7992,
      "appraisals": 7993,
      "sars": 7994,
      "exchangeable": 7995,
      "memor": 7996,
      "drilled": 7997,
      "greenhouse": 7998,
      "deed": 7999,
      "lynch": 8000,
      "pipe": 8001,
      "certifications": 8002,
      "ct": 8003,
      "threatened": 8004,
      "outdo": 8005,
      "evid": 8006,
      "##ipp": 8007,
      "official": 8008,
      "##iling": 8009,
      "##lical": 8010,
      "##hi": 8011,
      "toler": 8012,
      "household": 8013,
      "coff": 8014,
      "liquidate": 8015,
      "mills": 8016,
      "##otherap": 8017,
      "##oxide": 8018,
      "##spec": 8019,
      "mechanisms": 8020,
      "railroad": 8021,
      "today": 8022,
      "george": 8023,
      "grain": 8024,
      "##ita": 8025,
      "occasion": 8026,
      "advised": 8027,
      "fs": 8028,
      "##mal": 8029,
      "clauses": 8030,
      "begun": 8031,
      "resist": 8032,
      "susce": 8033,
      "retains": 8034,
      "upfront": 8035,
      "dak": 8036,
      "##11": 8037,
      "plastics": 8038,
      "simulation": 8039,
      "##onald": 8040,
      "##odyne": 8041,
      "rehab": 8042,
      "##hips": 8043,
      "reinsurers": 8044,
      "falls": 8045,
      "convey": 8046,
      "version": 8047,
      "packages": 8048,
      "enhancing": 8049,
      "bills": 8050,
      "cig": 8051,
      "unusual": 8052,
      "trip": 8053,
      "pict": 8054,
      "##phan": 8055,
      "bord": 8056,
      "ineffective": 8057,
      "163": 8058,
      "##usted": 8059,
      "governed": 8060,
      "trucks": 8061,
      "hybrid": 8062,
      "##phia": 8063,
      "supersed": 8064,
      "idaho": 8065,
      "transform": 8066,
      "prohibition": 8067,
      "custodian": 8068,
      "##apol": 8069,
      "nitr": 8070,
      "sugg": 8071,
      "indefinitely": 8072,
      "##aims": 8073,
      "merchandising": 8074,
      "amb": 8075,
      "popular": 8076,
      "##antom": 8077,
      "##energy": 8078,
      "seism": 8079,
      "incurrence": 8080,
      "rej": 8081,
      "refundable": 8082,
      "valuable": 8083,
      "just": 8084,
      "cities": 8085,
      "hourly": 8086,
      "fabrication": 8087,
      "pun": 8088,
      "franchis": 8089,
      "recommended": 8090,
      "##employment": 8091,
      "consistently": 8092,
      "negotiating": 8093,
      "language": 8094,
      "fox": 8095,
      "supports": 8096,
      "diamond": 8097,
      "publicity": 8098,
      "concessions": 8099,
      "ordered": 8100,
      "degrees": 8101,
      "restriction": 8102,
      "ferrell": 8103,
      "compensate": 8104,
      "##zy": 8105,
      "comprom": 8106,
      "formulation": 8107,
      "##cing": 8108,
      "engineered": 8109,
      "##car": 8110,
      "##tm": 8111,
      "rose": 8112,
      "152": 8113,
      "centralized": 8114,
      "505": 8115,
      "connected": 8116,
      "infringing": 8117,
      "##ronic": 8118,
      "develo": 8119,
      "differs": 8120,
      "##edict": 8121,
      "quotes": 8122,
      "insolvency": 8123,
      "##vard": 8124,
      "round": 8125,
      "187": 8126,
      "sky": 8127,
      "cyclical": 8128,
      "favorably": 8129,
      "unspec": 8130,
      "informed": 8131,
      "805": 8132,
      "##hes": 8133,
      "sized": 8134,
      "##ista": 8135,
      "seismic": 8136,
      "merge": 8137,
      "barrels": 8138,
      "oce": 8139,
      "phantom": 8140,
      "##goti": 8141,
      "gre": 8142,
      "voluntarily": 8143,
      "developer": 8144,
      "unspecified": 8145,
      "andersen": 8146,
      "##rim": 8147,
      "skin": 8148,
      "orth": 8149,
      "blank": 8150,
      "expression": 8151,
      "fn": 8152,
      "##inity": 8153,
      "ibm": 8154,
      "nb": 8155,
      "ceded": 8156,
      "earthqu": 8157,
      "experiences": 8158,
      "memory": 8159,
      "##oke": 8160,
      "acquirer": 8161,
      "##eseen": 8162,
      "divestitures": 8163,
      "renegoti": 8164,
      "nether": 8165,
      "sd": 8166,
      "steven": 8167,
      "##western": 8168,
      "crop": 8169,
      "##osis": 8170,
      "mines": 8171,
      "667": 8172,
      "unlikely": 8173,
      "unpredict": 8174,
      "enough": 8175,
      "bir": 8176,
      "ig": 8177,
      "amortize": 8178,
      "##enth": 8179,
      "##20": 8180,
      "lee": 8181,
      "hydroc": 8182,
      "206": 8183,
      "claimed": 8184,
      "unemployment": 8185,
      "dv": 8186,
      "##izer": 8187,
      "pi": 8188,
      "mob": 8189,
      "korea": 8190,
      "outdoor": 8191,
      "penetration": 8192,
      "diab": 8193,
      "1981": 8194,
      "instability": 8195,
      "rooms": 8196,
      "lighting": 8197,
      "##ces": 8198,
      "rf": 8199,
      "accommodate": 8200,
      "abandonment": 8201,
      "obsoles": 8202,
      "factory": 8203,
      "serviced": 8204,
      "biological": 8205,
      "cold": 8206,
      "unal": 8207,
      "suspend": 8208,
      "orphan": 8209,
      "premier": 8210,
      "##ored": 8211,
      "approaches": 8212,
      "votes": 8213,
      "##issible": 8214,
      "addressed": 8215,
      "allegh": 8216,
      "excell": 8217,
      "obsolescence": 8218,
      "substantive": 8219,
      "illustr": 8220,
      "surety": 8221,
      "peoples": 8222,
      "subcontractors": 8223,
      "capture": 8224,
      "noncance": 8225,
      "##american": 8226,
      "hub": 8227,
      "nonrecurring": 8228,
      "dpl": 8229,
      "##leading": 8230,
      "recall": 8231,
      "ml": 8232,
      "##isons": 8233,
      "addressing": 8234,
      "fifty": 8235,
      "##ander": 8236,
      "sba": 8237,
      "administer": 8238,
      "810": 8239,
      "incorporates": 8240,
      "thermal": 8241,
      "creates": 8242,
      "##change": 8243,
      "##ench": 8244,
      "cris": 8245,
      "authorizes": 8246,
      "##hu": 8247,
      "surch": 8248,
      "surcharg": 8249,
      "##ented": 8250,
      "experiencing": 8251,
      "wage": 8252,
      "##iaries": 8253,
      "waivers": 8254,
      "canceled": 8255,
      "lists": 8256,
      "##elect": 8257,
      "mexican": 8258,
      "hydraul": 8259,
      "oversee": 8260,
      "appropriately": 8261,
      "uncondition": 8262,
      "rehabilit": 8263,
      "qualifies": 8264,
      "oriented": 8265,
      "strike": 8266,
      "simultaneously": 8267,
      "catastrophe": 8268,
      "lg": 8269,
      "unbilled": 8270,
      "##oms": 8271,
      "viable": 8272,
      "simple": 8273,
      "statistical": 8274,
      "misappro": 8275,
      "hired": 8276,
      "agrees": 8277,
      "motors": 8278,
      "cel": 8279,
      "deducting": 8280,
      "wholesal": 8281,
      "chip": 8282,
      "assertion": 8283,
      "classify": 8284,
      "linked": 8285,
      "susceptible": 8286,
      "allocable": 8287,
      "revise": 8288,
      "phases": 8289,
      "cardi": 8290,
      "fill": 8291,
      "fhlbank": 8292,
      "whichever": 8293,
      "vertical": 8294,
      "unforeseen": 8295,
      "bc": 8296,
      "strengthen": 8297,
      "##keting": 8298,
      "##atin": 8299,
      "recruiting": 8300,
      "biopharm": 8301,
      "conditional": 8302,
      "hosting": 8303,
      "discourage": 8304,
      "reass": 8305,
      "inacc": 8306,
      "reset": 8307,
      "determinations": 8308,
      "ss": 8309,
      "buff": 8310,
      "prudential": 8311,
      "extremely": 8312,
      "##omb": 8313,
      "northeast": 8314,
      "adapt": 8315,
      "peco": 8316,
      "##wealth": 8317,
      "relied": 8318,
      "introductions": 8319,
      "ho": 8320,
      "eliminates": 8321,
      "compression": 8322,
      "eg": 8323,
      "##icate": 8324,
      "fitness": 8325,
      "wafer": 8326,
      "synthetic": 8327,
      "unallocated": 8328,
      "os": 8329,
      "libr": 8330,
      "discip": 8331,
      "preclud": 8332,
      "##ione": 8333,
      "consummate": 8334,
      "double": 8335,
      "merrill": 8336,
      "##ourn": 8337,
      "##uries": 8338,
      "forest": 8339,
      "assisted": 8340,
      "netherlands": 8341,
      "172": 8342,
      "hamp": 8343,
      "acquires": 8344,
      "validity": 8345,
      "question": 8346,
      "commonwealth": 8347,
      "kil": 8348,
      "ire": 8349,
      "diagnostics": 8350,
      "froz": 8351,
      "faster": 8352,
      "stim": 8353,
      "answ": 8354,
      "forg": 8355,
      "loyalty": 8356,
      "foreclosed": 8357,
      "##ulent": 8358,
      "wel": 8359,
      "holiday": 8360,
      "calling": 8361,
      "188": 8362,
      "##iger": 8363,
      "scan": 8364,
      "retrospectively": 8365,
      "pounds": 8366,
      "laund": 8367,
      "##essor": 8368,
      "insignificant": 8369,
      "waived": 8370,
      "hip": 8371,
      "##anged": 8372,
      "##corp": 8373,
      "countercl": 8374,
      "van": 8375,
      "anch": 8376,
      "fine": 8377,
      "##advant": 8378,
      "retire": 8379,
      "je": 8380,
      "opinions": 8381,
      "dakota": 8382,
      "extends": 8383,
      "invests": 8384,
      "ba": 8385,
      "barriers": 8386,
      "certifying": 8387,
      "##kins": 8388,
      "transmit": 8389,
      "interf": 8390,
      "geodyne": 8391,
      "eliminating": 8392,
      "hen": 8393,
      "modules": 8394,
      "hospitality": 8395,
      "footnote": 8396,
      "monitored": 8397,
      "surviving": 8398,
      "equities": 8399,
      "moderate": 8400,
      "##esis": 8401,
      "reclam": 8402,
      "fulf": 8403,
      "gift": 8404,
      "suits": 8405,
      "themselves": 8406,
      "architecture": 8407,
      "intermediate": 8408,
      "reclamation": 8409,
      "comparisons": 8410,
      "mezz": 8411,
      "harris": 8412,
      "hydro": 8413,
      "allegedly": 8414,
      "reconc": 8415,
      "prolong": 8416,
      "##repr": 8417,
      "essentially": 8418,
      "restructure": 8419,
      "htt": 8420,
      "notic": 8421,
      "stephen": 8422,
      "soci": 8423,
      "##lights": 8424,
      "daniel": 8425,
      "tick": 8426,
      "##rick": 8427,
      "expectation": 8428,
      "targeting": 8429,
      "bund": 8430,
      "generates": 8431,
      "loaned": 8432,
      "##aded": 8433,
      "configur": 8434,
      "equally": 8435,
      "##anded": 8436,
      "text": 8437,
      "##unctive": 8438,
      "ourselves": 8439,
      "misleading": 8440,
      "fann": 8441,
      "##link": 8442,
      "italy": 8443,
      "emergence": 8444,
      "##75": 8445,
      "164": 8446,
      "tied": 8447,
      "##anine": 8448,
      "indexed": 8449,
      "##tricted": 8450,
      "movement": 8451,
      "landfill": 8452,
      "##tists": 8453,
      "merits": 8454,
      "toll": 8455,
      "215": 8456,
      "react": 8457,
      "##shire": 8458,
      "jew": 8459,
      "corre": 8460,
      "##tor": 8461,
      "oncology": 8462,
      "punitive": 8463,
      "fraudulent": 8464,
      "islands": 8465,
      "bever": 8466,
      "ry": 8467,
      "places": 8468,
      "airline": 8469,
      "cit": 8470,
      "map": 8471,
      "persu": 8472,
      "obtains": 8473,
      "argen": 8474,
      "ix": 8475,
      "thresholds": 8476,
      "unrestricted": 8477,
      "burn": 8478,
      "survey": 8479,
      "bread": 8480,
      "noncompliance": 8481,
      "##orated": 8482,
      "passenger": 8483,
      "191": 8484,
      "dioxide": 8485,
      "battery": 8486,
      "fig": 8487,
      "meg": 8488,
      "promotions": 8489,
      "aging": 8490,
      "##rements": 8491,
      "inspections": 8492,
      "windows": 8493,
      "economics": 8494,
      "##glas": 8495,
      "##outs": 8496,
      "##allow": 8497,
      "##owners": 8498,
      "disadvant": 8499,
      "positioned": 8500,
      "instance": 8501,
      "sulfur": 8502,
      "cargo": 8503,
      "desk": 8504,
      "resident": 8505,
      "cpa": 8506,
      "abl": 8507,
      "tx": 8508,
      "participated": 8509,
      "guide": 8510,
      "##iding": 8511,
      "hills": 8512,
      "##ishing": 8513,
      "miller": 8514,
      "jackson": 8515,
      "cub": 8516,
      "grown": 8517,
      "publications": 8518,
      "ireland": 8519,
      "destin": 8520,
      "displays": 8521,
      "apollo": 8522,
      "##ensity": 8523,
      "irr": 8524,
      "etc": 8525,
      "acid": 8526,
      "aep": 8527,
      "ipl": 8528,
      "ech": 8529,
      "tumor": 8530,
      "fannie": 8531,
      "permissible": 8532,
      "clause": 8533,
      "ont": 8534,
      "##49": 8535,
      "salv": 8536,
      "ocean": 8537,
      "delta": 8538,
      "##ger": 8539,
      "##met": 8540,
      "douglas": 8541,
      "southeast": 8542,
      "recre": 8543,
      "##fin": 8544,
      "identi": 8545,
      "serp": 8546,
      "optimize": 8547,
      "indicator": 8548,
      "abuse": 8549,
      "debtor": 8550,
      "historic": 8551,
      "mezzanine": 8552,
      "ku": 8553,
      "situation": 8554,
      "midamerican": 8555,
      "thin": 8556,
      "storm": 8557,
      "hydraulic": 8558,
      "virtual": 8559,
      "diversity": 8560,
      "##liver": 8561,
      "##esa": 8562,
      "ft": 8563,
      "##apolis": 8564,
      "##aham": 8565,
      "##pted": 8566,
      "privile": 8567,
      "max": 8568,
      "brokered": 8569,
      "##itz": 8570,
      "##pers": 8571,
      "discovered": 8572,
      "##ags": 8573,
      "vulnerable": 8574,
      "compati": 8575,
      "208": 8576,
      "frozen": 8577,
      "slot": 8578,
      "bow": 8579,
      "geographical": 8580,
      "authorize": 8581,
      "donald": 8582,
      "recycling": 8583,
      "340": 8584,
      "insider": 8585,
      "older": 8586,
      "throughp": 8587,
      "http": 8588,
      "captioned": 8589,
      "destr": 8590,
      "erisa": 8591,
      "repe": 8592,
      "applicant": 8593,
      "tdr": 8594,
      "rural": 8595,
      "330": 8596,
      "grid": 8597,
      "212": 8598,
      "designate": 8599,
      "cru": 8600,
      "##priation": 8601,
      "contracting": 8602,
      "bea": 8603,
      "176": 8604,
      "referenced": 8605,
      "##iled": 8606,
      "perception": 8607,
      "189": 8608,
      "rmbs": 8609,
      "173": 8610,
      "securitized": 8611,
      "injunctive": 8612,
      "chains": 8613,
      "rot": 8614,
      "##40": 8615,
      "motions": 8616,
      "deems": 8617,
      "finite": 8618,
      "correction": 8619,
      "##mont": 8620,
      "marc": 8621,
      "disord": 8622,
      "therewith": 8623,
      "245": 8624,
      "rehabilitation": 8625,
      "noncurrent": 8626,
      "debit": 8627,
      "screening": 8628,
      "connectivity": 8629,
      "207": 8630,
      "notices": 8631,
      "variables": 8632,
      "geological": 8633,
      "ask": 8634,
      "##can": 8635,
      "narrow": 8636,
      "allegheny": 8637,
      "##yr": 8638,
      "preserve": 8639,
      "171": 8640,
      "unch": 8641,
      "lux": 8642,
      "throughput": 8643,
      "##cap": 8644,
      "##itzer": 8645,
      "treating": 8646,
      "##fi": 8647,
      "ban": 8648,
      "303": 8649,
      "##nc": 8650,
      "##ulations": 8651,
      "underwritten": 8652,
      "##actions": 8653,
      "stress": 8654,
      "169": 8655,
      "950": 8656,
      "##urg": 8657,
      "trigger": 8658,
      "journ": 8659,
      "##ystems": 8660,
      "##eland": 8661,
      "redevelop": 8662,
      "viii": 8663,
      "pensions": 8664,
      "yen": 8665,
      "##ompass": 8666,
      "##tech": 8667,
      "scrutin": 8668,
      "2024": 8669,
      "predominantly": 8670,
      "synergies": 8671,
      "##agen": 8672,
      "##mented": 8673,
      "##oco": 8674,
      "kick": 8675,
      "##tina": 8676,
      "coffee": 8677,
      "marked": 8678,
      "##revoc": 8679,
      "prote": 8680,
      "oxy": 8681,
      "differential": 8682,
      "flight": 8683,
      "abroad": 8684,
      "irrevoc": 8685,
      "nrc": 8686,
      "##ami": 8687,
      "opt": 8688,
      "compare": 8689,
      "825": 8690,
      "burd": 8691,
      "disaster": 8692,
      "pione": 8693,
      "##thing": 8694,
      "ngls": 8695,
      "ridge": 8696,
      "amortizing": 8697,
      "cul": 8698,
      "182": 8699,
      "securitizations": 8700,
      "cook": 8701,
      "latest": 8702,
      "mandated": 8703,
      "concession": 8704,
      "unpredictable": 8705,
      "encompass": 8706,
      "cath": 8707,
      "preventing": 8708,
      "breached": 8709,
      "minus": 8710,
      "que": 8711,
      "181": 8712,
      "174": 8713,
      "fluid": 8714,
      "sublic": 8715,
      "remediate": 8716,
      "unchanged": 8717,
      "negotiation": 8718,
      "expressing": 8719,
      "222": 8720,
      "ontario": 8721,
      "rod": 8722,
      "186": 8723,
      "177": 8724,
      "franklin": 8725,
      "explan": 8726,
      "hall": 8727,
      "hur": 8728,
      "overseas": 8729,
      "persuasive": 8730,
      "safegu": 8731,
      "##liquid": 8732,
      "optic": 8733,
      "pg": 8734,
      "##estr": 8735,
      "##ensus": 8736,
      "promptly": 8737,
      "delinquencies": 8738,
      "defenses": 8739,
      "anderson": 8740,
      "vacated": 8741,
      "groundwater": 8742,
      "maker": 8743,
      "178": 8744,
      "##usal": 8745,
      "##overs": 8746,
      "##insured": 8747,
      "##ora": 8748,
      "jpmorgan": 8749,
      "hp": 8750,
      "alph": 8751,
      "alex": 8752,
      "##issued": 8753,
      "puc": 8754,
      "experts": 8755,
      "183": 8756,
      "##ilton": 8757,
      "completely": 8758,
      "immune": 8759,
      "circuits": 8760,
      "temperature": 8761,
      "shortfall": 8762,
      "soil": 8763,
      "appraised": 8764,
      "desire": 8765,
      "optional": 8766,
      "##adelphia": 8767,
      "##andard": 8768,
      "480": 8769,
      "##ife": 8770,
      "184": 8771,
      "intensive": 8772,
      "philadelphia": 8773,
      "dip": 8774,
      "beneficiaries": 8775,
      "campaigns": 8776,
      "clark": 8777,
      "opposed": 8778,
      "chronic": 8779,
      "tract": 8780,
      "bh": 8781,
      "globally": 8782,
      "##ses": 8783,
      "eleven": 8784,
      "crisis": 8785,
      "consultation": 8786,
      "injunction": 8787,
      "zone": 8788,
      "##tings": 8789,
      "airport": 8790,
      "estimable": 8791,
      "shale": 8792,
      "bol": 8793,
      "##inos": 8794,
      "cigar": 8795,
      "sce": 8796,
      "ends": 8797,
      "##ding": 8798,
      "ratif": 8799,
      "fifteen": 8800,
      "interval": 8801,
      "findings": 8802,
      "depress": 8803,
      "netting": 8804,
      "announcements": 8805,
      "304": 8806,
      "turnover": 8807,
      "##rich": 8808,
      "servers": 8809,
      "##tl": 8810,
      "hydrocarb": 8811,
      "##eastern": 8812,
      "sevent": 8813,
      "##itude": 8814,
      "pocket": 8815,
      "prej": 8816,
      "signals": 8817,
      "235": 8818,
      "425": 8819,
      "hd": 8820,
      "retailer": 8821,
      "gmb": 8822,
      "##ho": 8823,
      "refinanced": 8824,
      "cure": 8825,
      "eurod": 8826,
      "ferrellgas": 8827,
      "hudson": 8828,
      "lots": 8829,
      "urban": 8830,
      "##amed": 8831,
      "allied": 8832,
      "incorporating": 8833,
      "##cast": 8834,
      "kel": 8835,
      "homebuild": 8836,
      "eurodollar": 8837,
      "tep": 8838,
      "depositor": 8839,
      "transl": 8840,
      "prolonged": 8841,
      "quest": 8842,
      "##afe": 8843,
      "##ots": 8844,
      "outlined": 8845,
      "illiquid": 8846,
      "versions": 8847,
      "tight": 8848,
      "470": 8849,
      "vent": 8850,
      "discounting": 8851,
      "allege": 8852,
      "explore": 8853,
      "cosme": 8854,
      "salt": 8855,
      "179": 8856,
      "downturns": 8857,
      "airways": 8858,
      "leave": 8859,
      "analyzed": 8860,
      "##eli": 8861,
      "290": 8862,
      "referral": 8863,
      "judge": 8864,
      "unexerc": 8865,
      "##lon": 8866,
      "investee": 8867,
      "started": 8868,
      "##ris": 8869,
      "##proc": 8870,
      "gmbh": 8871,
      "edward": 8872,
      "representation": 8873,
      "stead": 8874,
      "protecting": 8875,
      "nan": 8876,
      "keeping": 8877,
      "fluctuation": 8878,
      "antid": 8879,
      "christ": 8880,
      "confirmed": 8881,
      "##olve": 8882,
      "appealed": 8883,
      "email": 8884,
      "inquiries": 8885,
      "fidel": 8886,
      "##otherapy": 8887,
      "employs": 8888,
      "##iced": 8889,
      "gases": 8890,
      "bone": 8891,
      "provisional": 8892,
      "vene": 8893,
      "roc": 8894,
      "retroactively": 8895,
      "aftermarket": 8896,
      "##ince": 8897,
      "innovations": 8898,
      "##sey": 8899,
      "hurricane": 8900,
      "brad": 8901,
      "lifo": 8902,
      "365": 8903,
      "molecular": 8904,
      "229": 8905,
      "dor": 8906,
      "motivate": 8907,
      "##ears": 8908,
      "hyper": 8909,
      "410": 8910,
      "usd": 8911,
      "##arios": 8912,
      "logo": 8913,
      "damaged": 8914,
      "liquidating": 8915,
      "inventions": 8916,
      "carl": 8917,
      "##ligent": 8918,
      "faces": 8919,
      "ceiling": 8920,
      "diego": 8921,
      "fertili": 8922,
      "restructurings": 8923,
      "##usting": 8924,
      "lu": 8925,
      "justice": 8926,
      "ensuring": 8927,
      "forb": 8928,
      "wrote": 8929,
      "reaching": 8930,
      "optimization": 8931,
      "transpar": 8932,
      "article": 8933,
      "##mers": 8934,
      "216": 8935,
      "edge": 8936,
      "jv": 8937,
      "mixed": 8938,
      "identity": 8939,
      "kickback": 8940,
      "catastrophic": 8941,
      "nitrogen": 8942,
      "handle": 8943,
      "carries": 8944,
      "retiree": 8945,
      "checks": 8946,
[...]
